{
  "version": "1.0",
  "truncation": null,
  "padding": null,
  "added_tokens": [
    {
      "id": 0,
      "content": "[PAD]",
      "single_word": false,
      "lstrip": false,
      "rstrip": false,
      "normalized": false,
      "special": true
    },
    {
      "id": 1,
      "content": "[MASK]",
      "single_word": false,
      "lstrip": false,
      "rstrip": false,
      "normalized": false,
      "special": true
    },
    {
      "id": 2,
      "content": "[UNK]",
      "single_word": false,
      "lstrip": false,
      "rstrip": false,
      "normalized": false,
      "special": true
    },
    {
      "id": 3,
      "content": "[BOS]",
      "single_word": false,
      "lstrip": false,
      "rstrip": false,
      "normalized": false,
      "special": true
    },
    {
      "id": 4,
      "content": "[EOS]",
      "single_word": false,
      "lstrip": false,
      "rstrip": false,
      "normalized": false,
      "special": true
    },
    {
      "id": 5,
      "content": "[TURN]",
      "single_word": false,
      "lstrip": false,
      "rstrip": false,
      "normalized": false,
      "special": true
    }
  ],
  "normalizer": null,
  "pre_tokenizer": {
    "type": "Whitespace"
  },
  "post_processor": null,
  "decoder": null,
  "model": {
    "type": "BPE",
    "dropout": null,
    "unk_token": "[UNK]",
    "continuing_subword_prefix": null,
    "end_of_word_suffix": null,
    "fuse_unk": false,
    "byte_fallback": false,
    "ignore_merges": false,
    "vocab": {
      "[PAD]": 0,
      "[MASK]": 1,
      "[UNK]": 2,
      "[BOS]": 3,
      "[EOS]": 4,
      "[TURN]": 5,
      "!": 6,
      "\"": 7,
      "%": 8,
      "&": 9,
      "'": 10,
      "(": 11,
      ")": 12,
      "*": 13,
      "+": 14,
      ",": 15,
      "-": 16,
      ".": 17,
      "/": 18,
      "0": 19,
      "1": 20,
      "2": 21,
      "3": 22,
      "4": 23,
      "5": 24,
      "6": 25,
      "7": 26,
      "9": 27,
      ":": 28,
      ";": 29,
      "<": 30,
      ">": 31,
      "?": 32,
      "A": 33,
      "B": 34,
      "C": 35,
      "D": 36,
      "E": 37,
      "F": 38,
      "G": 39,
      "H": 40,
      "I": 41,
      "J": 42,
      "K": 43,
      "L": 44,
      "M": 45,
      "N": 46,
      "O": 47,
      "P": 48,
      "Q": 49,
      "R": 50,
      "S": 51,
      "T": 52,
      "U": 53,
      "V": 54,
      "W": 55,
      "X": 56,
      "Y": 57,
      "Z": 58,
      "\\": 59,
      "_": 60,
      "a": 61,
      "b": 62,
      "c": 63,
      "d": 64,
      "e": 65,
      "f": 66,
      "g": 67,
      "h": 68,
      "i": 69,
      "j": 70,
      "k": 71,
      "l": 72,
      "m": 73,
      "n": 74,
      "o": 75,
      "p": 76,
      "q": 77,
      "r": 78,
      "s": 79,
      "t": 80,
      "u": 81,
      "v": 82,
      "w": 83,
      "x": 84,
      "y": 85,
      "z": 86,
      "~": 87,
      "": 88,
      "": 89,
      "¦": 90,
      "©": 91,
      "¹": 92,
      "¼": 93,
      "Ã": 94,
      "â": 95,
      "æ": 96,
      "ç": 97,
      "ï": 98,
      "ð": 99,
      "œ": 100,
      "š": 101,
      "Ÿ": 102,
      "ž": 103,
      "˜": 104,
      "‚": 105,
      "†": 106,
      "•": 107,
      "‰": 108,
      "›": 109,
      "€": 110,
      "™": 111,
      "an": 112,
      "th": 113,
      "um": 114,
      "in": 115,
      "uman": 116,
      "Human": 117,
      "ou": 118,
      "re": 119,
      "at": 120,
      "ing": 121,
      "the": 122,
      "to": 123,
      "you": 124,
      "ve": 125,
      "it": 126,
      "on": 127,
      "or": 128,
      "me": 129,
      "st": 130,
      "al": 131,
      "ha": 132,
      "en": 133,
      "is": 134,
      "er": 135,
      "ar": 136,
      "oo": 137,
      "es": 138,
      "ow": 139,
      "ch": 140,
      "be": 141,
      "ay": 142,
      "li": 143,
      "of": 144,
      "ly": 145,
      "se": 146,
      "ke": 147,
      "so": 148,
      "as": 149,
      "le": 150,
      "and": 151,
      "hat": 152,
      "ot": 153,
      "he": 154,
      "ic": 155,
      "ll": 156,
      "do": 157,
      "that": 158,
      "for": 159,
      "we": 160,
      "ver": 161,
      "out": 162,
      "have": 163,
      "ac": 164,
      "ut": 165,
      "ed": 166,
      "are": 167,
      "ab": 168,
      "ood": 169,
      "gh": 170,
      "et": 171,
      "un": 172,
      "wi": 173,
      "like": 174,
      "ld": 175,
      "pl": 176,
      "ri": 177,
      "ad": 178,
      "id": 179,
      "ti": 180,
      "day": 181,
      "go": 182,
      "ro": 183,
      "co": 184,
      "ally": 185,
      "mo": 186,
      "your": 187,
      "am": 188,
      "ho": 189,
      "fe": 190,
      "about": 191,
      "up": 192,
      "what": 193,
      "some": 194,
      "It": 195,
      "ea": 196,
      "good": 197,
      "wor": 198,
      "..": 199,
      "my": 200,
      "end": 201,
      "What": 202,
      "Hi": 203,
      "ðŸ": 204,
      "but": 205,
      "lo": 206,
      "tr": 207,
      "ink": 208,
      "ould": 209,
      "ice": 210,
      "pe": 211,
      "ne": 212,
      "with": 213,
      "was": 214,
      "all": 215,
      "thing": 216,
      "ght": 217,
      "ust": 218,
      "think": 219,
      "one": 220,
      "here": 221,
      "nd": 222,
      "nt": 223,
      "not": 224,
      "any": 225,
      "time": 226,
      "ce": 227,
      "pre": 228,
      "work": 229,
      "now": 230,
      "ur": 231,
      "very": 232,
      "how": 233,
      "™‚": 234,
      "How": 235,
      "te": 236,
      "ty": 237,
      "ook": 238,
      "ame": 239,
      "can": 240,
      "hi": 241,
      "ion": 242,
      "ter": 243,
      "if": 244,
      "going": 245,
      "ast": 246,
      "ate": 247,
      "too": 248,
      "Do": 249,
      "ound": 250,
      "de": 251,
      "get": 252,
      "lot": 253,
      "ant": 254,
      "us": 255,
      "ite": 256,
      "ex": 257,
      "ure": 258,
      "ple": 259,
      "ough": 260,
      "fun": 261,
      "just": 262,
      "this": 263,
      "ks": 264,
      "ind": 265,
      "gre": 266,
      "haha": 267,
      "ent": 268,
      "there": 269,
      "ain": 270,
      "ers": 271,
      "Ha": 272,
      "ake": 273,
      "ool": 274,
      "plan": 275,
      "Oh": 276,
      "act": 277,
      "really": 278,
      "eah": 279,
      "did": 280,
      "ir": 281,
      "would": 282,
      "been": 283,
      "try": 284,
      "atch": 285,
      "He": 286,
      "ish": 287,
      "el": 288,
      "sp": 289,
      "tty": 290,
      "ul": 291,
      "wee": 292,
      "av": 293,
      "ge": 294,
      "qu": 295,
      "art": 296,
      "ED": 297,
      "uch": 298,
      "will": 299,
      "com": 300,
      "ear": 301,
      "know": 302,
      "nice": 303,
      "ther": 304,
      "ard": 305,
      "rom": 306,
      "week": 307,
      "You": 308,
      "don": 309,
      "jo": 310,
      "ually": 311,
      "more": 312,
      "sh": 313,
      "read": 314,
      "ess": 315,
      "ci": 316,
      "vi": 317,
      "ong": 318,
      "see": 319,
      "from": 320,
      "no": 321,
      "ving": 322,
      "anks": 323,
      "love": 324,
      "pretty": 325,
      "con": 326,
      "im": 327,
      "much": 328,
      "ounds": 329,
      "pp": 330,
      "use": 331,
      "way": 332,
      "ig": 333,
      "ight": 334,
      "pro": 335,
      "they": 336,
      "well": 337,
      "great": 338,
      "Th": 339,
      "The": 340,
      "po": 341,
      "play": 342,
      "...": 343,
      "That": 344,
      "af": 345,
      "fo": 346,
      "fri": 347,
      "them": 348,
      "ends": 349,
      "ct": 350,
      "gr": 351,
      "ation": 352,
      "most": 353,
      "ak": 354,
      "cou": 355,
      "eve": 356,
      "food": 357,
      "gi": 358,
      "wh": 359,
      "watch": 360,
      "fav": 361,
      "ting": 362,
      "though": 363,
      "had": 364,
      "plac": 365,
      "days": 366,
      "il": 367,
      "ople": 368,
      "rest": 369,
      "book": 370,
      "ca": 371,
      "gu": 372,
      "want": 373,
      "doing": 374,
      "feel": 375,
      "Yes": 376,
      "cool": 377,
      "ep": 378,
      "tri": 379,
      "year": 380,
      "ort": 381,
      "also": 382,
      "ning": 383,
      "sounds": 384,
      "yeah": 385,
      "people": 386,
      "actually": 387,
      "We": 388,
      "ill": 389,
      "ity": 390,
      "sel": 391,
      "got": 392,
      "last": 393,
      "favor": 394,
      "fin": 395,
      "kind": 396,
      "pr": 397,
      "ry": 398,
      "then": 399,
      "enjo": 400,
      "bet": 401,
      "llo": 402,
      "ide": 403,
      "hich": 404,
      "should": 405,
      "fore": 406,
      "self": 407,
      "enjoy": 408,
      "So": 409,
      "ies": 410,
      "where": 411,
      "before": 412,
      "ack": 413,
      "ave": 414,
      "by": 415,
      "late": 416,
      "ol": 417,
      "sc": 418,
      "who": 419,
      "our": 420,
      "right": 421,
      "movi": 422,
      "No": 423,
      "ap": 424,
      "ten": 425,
      "thanks": 426,
      "har": 427,
      "live": 428,
      "never": 429,
      "Haha": 430,
      "weekend": 431,
      "bit": 432,
      "ck": 433,
      "every": 434,
      "far": 435,
      "ive": 436,
      "long": 437,
      "mon": 438,
      "over": 439,
      "tre": 440,
      "ous": 441,
      "meet": 442,
      "alk": 443,
      "heard": 444,
      "ick": 445,
      "holi": 446,
      "friends": 447,
      "favorite": 448,
      "!!": 449,
      "AC": 450,
      "RED": 451,
      "TED": 452,
      "Yeah": 453,
      "aw": 454,
      "der": 455,
      "game": 456,
      "look": 457,
      "oh": 458,
      "part": 459,
      "ue": 460,
      "has": 461,
      "ass": 462,
      "led": 463,
      "fere": 464,
      "when": 465,
      "ACTED": 466,
      "REDACTED": 467,
      "REDACTED_": 468,
      "ER": 469,
      "Ne": 470,
      "ag": 471,
      "cl": 472,
      "ful": 473,
      "per": 474,
      "pers": 475,
      "ss": 476,
      "ance": 477,
      "ine": 478,
      "inte": 479,
      "today": 480,
      "does": 481,
      "plans": 482,
      ":)": 483,
      "But": 484,
      "My": 485,
      "bo": 486,
      "fish": 487,
      "make": 488,
      "vis": 489,
      "which": 490,
      "ang": 491,
      "into": 492,
      "own": 493,
      "haven": 494,
      "Have": 495,
      "Hey": 496,
      "interest": 497,
      "Are": 498,
      "Nice": 499,
      "TER": 500,
      "ach": 501,
      "bad": 502,
      "cal": 503,
      "di": 504,
      "eat": 505,
      "fer": 506,
      "may": 507,
      "other": 508,
      "say": 509,
      "ment": 510,
      "start": 511,
      "seen": 512,
      "home": 513,
      "lol": 514,
      "things": 515,
      "Hello": 516,
      "ways": 517,
      "place": 518,
      "better": 519,
      "REDACTED_TER": 520,
      "person": 521,
      "REDACTED_TERM": 522,
      "cre": 523,
      "lit": 524,
      "mb": 525,
      "ny": 526,
      "rain": 527,
      "su": 528,
      "sup": 529,
      "show": 530,
      "sure": 531,
      "xt": 532,
      "yes": 533,
      "ater": 534,
      "stu": 535,
      "ence": 536,
      "something": 537,
      "giving": 538,
      "visit": 539,
      "bu": 540,
      "back": 541,
      "hh": 542,
      "hy": 543,
      "ily": 544,
      "ok": 545,
      "talk": 546,
      "wow": 547,
      "tor": 548,
      "only": 549,
      "cho": 550,
      "best": 551,
      "life": 552,
      "hel": 553,
      "able": 554,
      "tried": 555,
      "az": 556,
      "bot": 557,
      "cook": 558,
      "fam": 559,
      "mm": 560,
      "put": 561,
      "sk": 562,
      "same": 563,
      "take": 564,
      "ought": 565,
      "these": 566,
      "unch": 567,
      "next": 568,
      "trying": 569,
      "que": 570,
      "after": 571,
      "guess": 572,
      "interesting": 573,
      "Where": 574,
      "bab": 575,
      "dif": 576,
      "find": 577,
      "mar": 578,
      "ose": 579,
      "pi": 580,
      "ps": 581,
      "run": 582,
      "went": 583,
      "ons": 584,
      "ali": 585,
      "trave": 586,
      "cause": 587,
      "Ch": 588,
      "There": 589,
      "ff": 590,
      "fl": 591,
      "mas": 592,
      "na": 593,
      "sch": 594,
      "tur": 595,
      "those": 596,
      "str": 597,
      "happ": 598,
      "rist": 599,
      "ade": 600,
      "Thanks": 601,
      "holidays": 602,
      "class": 603,
      "cr": 604,
      "cli": 605,
      "down": 606,
      "ever": 607,
      "fir": 608,
      "many": 609,
      "tle": 610,
      "wa": 611,
      "yea": 612,
      "than": 613,
      "its": 614,
      "mean": 615,
      "sed": 616,
      "key": 617,
      "come": 618,
      "cold": 619,
      "world": 620,
      "need": 621,
      "exper": 622,
      "ready": 623,
      "couple": 624,
      "hard": 625,
      "little": 626,
      "Just": 627,
      "Not": 628,
      "ath": 629,
      "ble": 630,
      "lunch": 631,
      "made": 632,
      "tu": 633,
      "won": 634,
      "red": 635,
      "res": 636,
      "ors": 637,
      "men": 638,
      "always": 639,
      "che": 640,
      "lear": 641,
      "idea": 642,
      "colate": 643,
      "few": 644,
      "anything": 645,
      "coming": 646,
      "akes": 647,
      "places": 648,
      "New": 649,
      "help": 650,
      "family": 651,
      "differe": 652,
      "Ho": 653,
      "Tr": 654,
      "Wow": 655,
      "cit": 656,
      "man": 657,
      "ra": 658,
      "€™": 659,
      "ings": 660,
      "once": 661,
      "ork": 662,
      "still": 663,
      "ary": 664,
      "because": 665,
      "hope": 666,
      "new": 667,
      "times": 668,
      "prefer": 669,
      "used": 670,
      "movie": 671,
      "movies": 672,
      "month": 673,
      "called": 674,
      "super": 675,
      "stuff": 676,
      "first": 677,
      "different": 678,
      "Cool": 679,
      "Gre": 680,
      "Good": 681,
      "Is": 682,
      "bus": 683,
      "big": 684,
      "could": 685,
      "cent": 686,
      "dr": 687,
      "je": 688,
      "ms": 689,
      "might": 690,
      "pic": 691,
      "side": 692,
      "vol": 693,
      "thought": 694,
      "mer": 695,
      "stion": 696,
      "having": 697,
      "seas": 698,
      "were": 699,
      "ute": 700,
      "tion": 701,
      "thinking": 702,
      "working": 703,
      "uring": 704,
      "planning": 705,
      "imp": 706,
      "aking": 707,
      "pract": 708,
      "chocolate": 709,
      "ristmas": 710,
      "experi": 711,
      "br": 712,
      "ball": 713,
      "catch": 714,
      "fic": 715,
      "name": 716,
      "ome": 717,
      "sto": 718,
      "sur": 719,
      "ts": 720,
      "tea": 721,
      "wr": 722,
      "ward": 723,
      "yet": 724,
      "thr": 725,
      "rese": 726,
      "their": 727,
      "stay": 728,
      "stand": 729,
      "already": 730,
      "ise": 731,
      "ery": 732,
      "arch": 733,
      "around": 734,
      "esome": 735,
      "off": 736,
      "often": 737,
      "ask": 738,
      "leep": 739,
      "heal": 740,
      "ical": 741,
      "vers": 742,
      "robot": 743,
      "yourself": 744,
      "myself": 745,
      "peci": 746,
      "getting": 747,
      "ants": 748,
      "itely": 749,
      "reading": 750,
      "This": 751,
      "friend": 752,
      "event": 753,
      "finitely": 754,
      "ski": 755,
      "bably": 756,
      "school": 757,
      "Hope": 758,
      "Great": 759,
      "ject": 760,
      "research": 761,
      "??": 762,
      "Any": 763,
      "Very": 764,
      "York": 765,
      "ah": 766,
      "age": 767,
      "cor": 768,
      "cle": 769,
      "done": 770,
      "ian": 771,
      "nce": 772,
      "rac": 773,
      "sleep": 774,
      "water": 775,
      "yo": 776,
      "inter": 777,
      "oup": 778,
      "orry": 779,
      "beli": 780,
      "hear": 781,
      "dep": 782,
      "definitely": 783,
      "excit": 784,
      "project": 785,
      "mostly": 786,
      "even": 787,
      "looking": 788,
      "cream": 789,
      "mber": 790,
      "talking": 791,
      "azing": 792,
      "travel": 793,
      "happen": 794,
      "wait": 795,
      "busy": 796,
      "season": 797,
      "practice": 798,
      "through": 799,
      "health": 800,
      "believe": 801,
      "Ever": 802,
      "Hmm": 803,
      "Lol": 804,
      "May": 805,
      "Sounds": 806,
      "To": 807,
      "Wh": 808,
      "ail": 809,
      "bre": 810,
      "dy": 811,
      "during": 812,
      "gy": 813,
      "gon": 814,
      "later": 815,
      "mor": 816,
      "mind": 817,
      "makes": 818,
      "ner": 819,
      "ned": 820,
      "par": 821,
      "saw": 822,
      "ted": 823,
      "anc": 824,
      "ani": 825,
      "ange": 826,
      "recent": 827,
      "ature": 828,
      "ven": 829,
      "orig": 830,
      "being": 831,
      "soon": 832,
      "under": 833,
      "col": 834,
      "sometimes": 835,
      "ney": 836,
      "type": 837,
      "high": 838,
      "didn": 839,
      "They": 840,
      "why": 841,
      "books": 842,
      "feeling": 843,
      "trip": 844,
      "maybe": 845,
      "shows": 846,
      "question": 847,
      "Thanksgiving": 848,
      "check": 849,
      "True": 850,
      "import": 851,
      "experience": 852,
      "gonna": 853,
      "origin": 854,
      "Ah": 855,
      "Al": 856,
      "As": 857,
      "Ahh": 858,
      "If": 859,
      "Li": 860,
      "Let": 861,
      "Sure": 862,
      "Why": 863,
      "ago": 864,
      "ba": 865,
      "cat": 866,
      "clo": 867,
      "cus": 868,
      "dd": 869,
      "dis": 870,
      "des": 871,
      "fre": 872,
      "fig": 873,
      "hot": 874,
      "ix": 875,
      "land": 876,
      "less": 877,
      "mus": 878,
      "ph": 879,
      "ping": 880,
      "pare": 881,
      "pick": 882,
      "phy": 883,
      "sit": 884,
      "sen": 885,
      "snow": 886,
      "sci": 887,
      "sort": 888,
      "tend": 889,
      "wo": 890,
      "int": 891,
      "ount": 892,
      "real": 893,
      "recom": 894,
      "ves": 895,
      "med": 896,
      "mend": 897,
      "ste": 898,
      "enough": 899,
      "iss": 900,
      "set": 901,
      "ked": 902,
      "keep": 903,
      "hey": 904,
      "forward": 905,
      "unte": 906,
      "amazing": 907,
      "Its": 908,
      "ntly": 909,
      "team": 910,
      "amen": 911,
      "him": 912,
      "ions": 913,
      "else": 914,
      "pping": 915,
      "probably": 916,
      "pop": 917,
      "playing": 918,
      "played": 919,
      "cour": 920,
      "count": 921,
      "Well": 922,
      "whole": 923,
      "everything": 924,
      "tree": 925,
      "holiday": 926,
      "ference": 927,
      "anger": 928,
      "months": 929,
      "break": 930,
      "important": 931,
      "Like": 932,
      "recommend": 933,
      "Did": 934,
      "In": 935,
      "Ok": 936,
      "au": 937,
      "ather": 938,
      "care": 939,
      "city": 940,
      "din": 941,
      "dri": 942,
      "fan": 943,
      "gl": 944,
      "ia": 945,
      "ier": 946,
      "nis": 947,
      "night": 948,
      "os": 949,
      "old": 950,
      "oil": 951,
      "past": 952,
      "sha": 953,
      "sho": 954,
      "sick": 955,
      "tast": 956,
      "ull": 957,
      "uck": 958,
      "˜‰": 959,
      "rel": 960,
      "ated": 961,
      "member": 962,
      "sty": 963,
      "stly": 964,
      "ower": 965,
      "ket": 966,
      "hello": 967,
      "weather": 968,
      "ace": 969,
      "area": 970,
      "someone": 971,
      "true": 972,
      "press": 973,
      "lots": 974,
      "funny": 975,
      "ult": 976,
      "quite": 977,
      "group": 978,
      "watched": 979,
      "years": 980,
      "finish": 981,
      "scary": 982,
      "apan": 983,
      "tennis": 984,
      "thanksgiving": 985,
      "treme": 986,
      "meeting": 987,
      "awesome": 988,
      "buy": 989,
      "marath": 990,
      "Christmas": 991,
      "turkey": 992,
      "climb": 993,
      "mentor": 994,
      "drink": 995,
      "volunte": 996,
      "pecially": 997,
      "Maybe": 998,
      "When": 999,
      "understand": 1000,
      "ountain": 1001,
      "Be": 1002,
      "Can": 1003,
      "Dis": 1004,
      "Go": 1005,
      "Japan": 1006,
      "Me": 1007,
      "San": 1008,
      "Who": 1009,
      "Would": 1010,
      "Which": 1011,
      "bing": 1012,
      "bal": 1013,
      "ber": 1014,
      "bar": 1015,
      "brain": 1016,
      "cer": 1017,
      "car": 1018,
      "cro": 1019,
      "ding": 1020,
      "dish": 1021,
      "eas": 1022,
      "fli": 1023,
      "fight": 1024,
      "gs": 1025,
      "gen": 1026,
      "hor": 1027,
      "hand": 1028,
      "ire": 1029,
      "ild": 1030,
      "ique": 1031,
      "kach": 1032,
      "les": 1033,
      "min": 1034,
      "mat": 1035,
      "mit": 1036,
      "must": 1037,
      "mate": 1038,
      "nor": 1039,
      "op": 1040,
      "pes": 1041,
      "ring": 1042,
      "sou": 1043,
      "sing": 1044,
      "swe": 1045,
      "sun": 1046,
      "sad": 1047,
      "such": 1048,
      "tough": 1049,
      "vide": 1050,
      "war": 1051,
      "wish": 1052,
      "winter": 1053,
      "remember": 1054,
      "toge": 1055,
      "vent": 1056,
      "met": 1057,
      "ark": 1058,
      "ese": 1059,
      "chat": 1060,
      "beach": 1061,
      "head": 1062,
      "lling": 1063,
      "etc": 1064,
      "fect": 1065,
      "....": 1066,
      "train": 1067,
      "Does": 1068,
      "deli": 1069,
      "usually": 1070,
      "extreme": 1071,
      "Hehe": 1072,
      "sport": 1073,
      "ular": 1074,
      "join": 1075,
      "conference": 1076,
      "imag": 1077,
      "pose": 1078,
      "afra": 1079,
      "grad": 1080,
      "ations": 1081,
      "give": 1082,
      "watching": 1083,
      "Some": 1084,
      "games": 1085,
      "again": 1086,
      "eating": 1087,
      "started": 1088,
      "okay": 1089,
      "pikach": 1090,
      "flower": 1091,
      "wonder": 1092,
      "learn": 1093,
      "skiing": 1094,
      "depends": 1095,
      "ails": 1096,
      "recently": 1097,
      "colle": 1098,
      "figure": 1099,
      "stead": 1100,
      "style": 1101,
      "Disney": 1102,
      "balance": 1103,
      "sweet": 1104,
      "together": 1105,
      "afraid": 1106,
      "pikachu": 1107,
      "All": 1108,
      "Aust": 1109,
      "De": 1110,
      "Ex": 1111,
      "Fr": 1112,
      "For": 1113,
      "Hun": 1114,
      "Mo": 1115,
      "Now": 1116,
      "Po": 1117,
      "Pre": 1118,
      "Same": 1119,
      "Sorry": 1120,
      "US": 1121,
      "ax": 1122,
      "aut": 1123,
      "app": 1124,
      "bor": 1125,
      "call": 1126,
      "ee": 1127,
      "em": 1128,
      "fr": 1129,
      "human": 1130,
      "his": 1131,
      "ii": 1132,
      "io": 1133,
      "ious": 1134,
      "kid": 1135,
      "lan": 1136,
      "mall": 1137,
      "mone": 1138,
      "mountain": 1139,
      "net": 1140,
      "pt": 1141,
      "pot": 1142,
      "pho": 1143,
      "pain": 1144,
      "rali": 1145,
      "sw": 1146,
      "ser": 1147,
      "sid": 1148,
      "sound": 1149,
      "vac": 1150,
      "vir": 1151,
      "ze": 1152,
      "atur": 1153,
      "ative": 1154,
      "top": 1155,
      "vel": 1156,
      "org": 1157,
      "mel": 1158,
      "mess": 1159,
      "especially": 1160,
      "chill": 1161,
      "beaut": 1162,
      "sol": 1163,
      "hed": 1164,
      "llow": 1165,
      "outside": 1166,
      "arently": 1167,
      "ries": 1168,
      "adv": 1169,
      "tired": 1170,
      "goes": 1171,
      "roll": 1172,
      "word": 1173,
      "ending": 1174,
      "wasn": 1175,
      "prepare": 1176,
      "iful": 1177,
      "aster": 1178,
      "ures": 1179,
      "grew": 1180,
      "comp": 1181,
      "cious": 1182,
      "seems": 1183,
      "convers": 1184,
      "favour": 1185,
      "kinds": 1186,
      "lately": 1187,
      "scare": 1188,
      "looks": 1189,
      "fully": 1190,
      "both": 1191,
      "dist": 1192,
      "sug": 1193,
      "happy": 1194,
      "crab": 1195,
      "exciting": 1196,
      "morning": 1197,
      "Also": 1198,
      "based": 1199,
      "close": 1200,
      "discus": 1201,
      "music": 1202,
      "phys": 1203,
      "sense": 1204,
      "course": 1205,
      "Okay": 1206,
      "dinner": 1207,
      "shopping": 1208,
      "relax": 1209,
      "volunteer": 1210,
      "warm": 1211,
      "delicious": 1212,
      "Australi": 1213,
      "Pretty": 1214,
      "money": 1215,
      "beautiful": 1216,
      "favourite": 1217,
      "Australia": 1218,
      ").": 1219,
      "24": 1220,
      "Ad": 1221,
      "Av": 1222,
      "Every": 1223,
      "Ger": 1224,
      "Iâ": 1225,
      "Pro": 1226,
      "Re": 1227,
      "Right": 1228,
      "Tur": 1229,
      "Vi": 1230,
      "Was": 1231,
      "ai": 1232,
      "aid": 1233,
      "aur": 1234,
      "bst": 1235,
      "bes": 1236,
      "bas": 1237,
      "cy": 1238,
      "cur": 1239,
      "cute": 1240,
      "dark": 1241,
      "ele": 1242,
      "fast": 1243,
      "found": 1244,
      "full": 1245,
      "ger": 1246,
      "gone": 1247,
      "hal": 1248,
      "hun": 1249,
      "hone": 1250,
      "hour": 1251,
      "ip": 1252,
      "ible": 1253,
      "kk": 1254,
      "ling": 1255,
      "luck": 1256,
      "match": 1257,
      "minto": 1258,
      "mix": 1259,
      "nn": 1260,
      "ns": 1261,
      "nood": 1262,
      "nam": 1263,
      "phi": 1264,
      "pong": 1265,
      "pap": 1266,
      "ramen": 1267,
      "sy": 1268,
      "sin": 1269,
      "sof": 1270,
      "sent": 1271,
      "sess": 1272,
      "shar": 1273,
      "sorry": 1274,
      "tal": 1275,
      "twi": 1276,
      "taking": 1277,
      "two": 1278,
      "val": 1279,
      "wn": 1280,
      "wan": 1281,
      "whi": 1282,
      "yay": 1283,
      "ump": 1284,
      "inside": 1285,
      "instead": 1286,
      "ating": 1287,
      "atar": 1288,
      "attend": 1289,
      "town": 1290,
      "ved": 1291,
      "itch": 1292,
      "ord": 1293,
      "almost": 1294,
      "eng": 1295,
      "ens": 1296,
      "arter": 1297,
      "chance": 1298,
      "christmas": 1299,
      "light": 1300,
      "offe": 1301,
      "asure": 1302,
      "let": 1303,
      "least": 1304,
      "ote": 1305,
      "ics": 1306,
      "icy": 1307,
      "ween": 1308,
      "weir": 1309,
      "acti": 1310,
      "actor": 1311,
      "unti": 1312,
      "advent": 1313,
      "someday": 1314,
      "tem": 1315,
      "tech": 1316,
      "tell": 1317,
      "hip": 1318,
      "dec": 1319,
      "expl": 1320,
      "exce": 1321,
      "ents": 1322,
      "Hawa": 1323,
      "wouldn": 1324,
      "spoil": 1325,
      "weeks": 1326,
      "gest": 1327,
      "comput": 1328,
      "early": 1329,
      "job": 1330,
      "seeing": 1331,
      "noon": 1332,
      "impress": 1333,
      "progre": 1334,
      "progr": 1335,
      "ground": 1336,
      "cafe": 1337,
      "wanted": 1338,
      "between": 1339,
      "meetings": 1340,
      "doesn": 1341,
      "badminto": 1342,
      "personal": 1343,
      "visited": 1344,
      "azz": 1345,
      "baby": 1346,
      "pie": 1347,
      "flav": 1348,
      "thank": 1349,
      "survi": 1350,
      "surpr": 1351,
      "write": 1352,
      "events": 1353,
      "sleeping": 1354,
      "excited": 1355,
      "projects": 1356,
      "happened": 1357,
      "healthy": 1358,
      "science": 1359,
      "issants": 1360,
      "drive": 1361,
      "taste": 1362,
      "Going": 1363,
      "croissants": 1364,
      "easy": 1365,
      "flix": 1366,
      "gener": 1367,
      "horse": 1368,
      "college": 1369,
      "photo": 1370,
      "organi": 1371,
      "physical": 1372,
      "Avatar": 1373,
      "Turkey": 1374,
      "since": 1375,
      "while": 1376,
      "offee": 1377,
      "until": 1378,
      "Hawaii": 1379,
      "impressive": 1380,
      "program": 1381,
      "badminton": 1382,
      "--": 1383,
      "AI": 1384,
      "At": 1385,
      "Aw": 1386,
      "And": 1387,
      "App": 1388,
      "Act": 1389,
      "Game": 1390,
      "Ind": 1391,
      "LI": 1392,
      "Or": 1393,
      "Per": 1394,
      "Par": 1395,
      "Ramen": 1396,
      "Sci": 1397,
      "TV": 1398,
      "Tar": 1399,
      "Yea": 1400,
      "away": 1401,
      "bl": 1402,
      "bur": 1403,
      "bake": 1404,
      "cum": 1405,
      "cha": 1406,
      "ces": 1407,
      "cri": 1408,
      "ctr": 1409,
      "came": 1410,
      "cks": 1411,
      "cake": 1412,
      "cess": 1413,
      "ccer": 1414,
      "coffee": 1415,
      "da": 1416,
      "den": 1417,
      "det": 1418,
      "dun": 1419,
      "danger": 1420,
      "ef": 1421,
      "ew": 1422,
      "fut": 1423,
      "fact": 1424,
      "fill": 1425,
      "hum": 1426,
      "hit": 1427,
      "hang": 1428,
      "hmm": 1429,
      "ither": 1430,
      "mach": 1431,
      "nch": 1432,
      "ness": 1433,
      "nature": 1434,
      "pu": 1435,
      "pri": 1436,
      "pur": 1437,
      "row": 1438,
      "rand": 1439,
      "rout": 1440,
      "spe": 1441,
      "sig": 1442,
      "sight": 1443,
      "stor": 1444,
      "speci": 1445,
      "said": 1446,
      "tain": 1447,
      "tack": 1448,
      "ual": 1449,
      "uro": 1450,
      "va": 1451,
      "vit": 1452,
      "vity": 1453,
      "wall": 1454,
      "walk": 1455,
      "wise": 1456,
      "yum": 1457,
      "yup": 1458,
      "zed": 1459,
      "zation": 1460,
      "˜‚": 1461,
      "˜›": 1462,
      "answ": 1463,
      "invol": 1464,
      "inese": 1465,
      "oud": 1466,
      "ref": 1467,
      "resp": 1468,
      "ati": 1469,
      "ates": 1470,
      "topic": 1471,
      "tomor": 1472,
      "youtu": 1473,
      "itâ": 1474,
      "itself": 1475,
      "ones": 1476,
      "ory": 1477,
      "ories": 1478,
      "stre": 1479,
      "ale": 1480,
      "enti": 1481,
      "arian": 1482,
      "ooh": 1483,
      "chall": 1484,
      "change": 1485,
      "chord": 1486,
      "lif": 1487,
      "list": 1488,
      "lier": 1489,
      "living": 1490,
      "secon": 1491,
      "kemon": 1492,
      "soccer": 1493,
      "lead": 1494,
      "ically": 1495,
      "doors": 1496,
      "thats": 1497,
      "forgot": 1498,
      "outlook": 1499,
      "edu": 1500,
      "unique": 1501,
      "wild": 1502,
      "liked": 1503,
      "add": 1504,
      "tiring": 1505,
      "code": 1506,
      "coaster": 1507,
      "moon": 1508,
      "moment": 1509,
      "yours": 1510,
      "ample": 1511,
      "each": 1512,
      "lop": 1513,
      "local": 1514,
      "logy": 1515,
      "near": 1516,
      "test": 1517,
      "types": 1518,
      "cannot": 1519,
      "ters": 1520,
      "tery": 1521,
      "ifi": 1522,
      "took": 1523,
      "decor": 1524,
      "example": 1525,
      "fund": 1526,
      "spir": 1527,
      "space": 1528,
      "spicy": 1529,
      "qui": 1530,
      "quet": 1531,
      "quarter": 1532,
      "earlier": 1533,
      "ciate": 1534,
      "seem": 1535,
      "nope": 1536,
      "nothing": 1537,
      "consid": 1538,
      "proble": 1539,
      "posit": 1540,
      "point": 1541,
      "Thats": 1542,
      "affic": 1543,
      "follow": 1544,
      "cted": 1545,
      "foods": 1546,
      "restaur": 1547,
      "guil": 1548,
      "prof": 1549,
      "enjoying": 1550,
      "latest": 1551,
      "scen": 1552,
      "Nothing": 1553,
      "everyone": 1554,
      "!!!": 1555,
      "partic": 1556,
      "Never": 1557,
      "Neur": 1558,
      "boy": 1559,
      "board": 1560,
      "dia": 1561,
      "diving": 1562,
      "liter": 1563,
      "sucks": 1564,
      "build": 1565,
      "bots": 1566,
      "cooking": 1567,
      "cookies": 1568,
      "afternoon": 1569,
      "psy": 1570,
      "travelling": 1571,
      "Chinese": 1572,
      "turns": 1573,
      "means": 1574,
      "comes": 1575,
      "tual": 1576,
      "tubing": 1577,
      "learning": 1578,
      "bring": 1579,
      "store": 1580,
      "writ": 1581,
      "office": 1582,
      "racquet": 1583,
      "gym": 1584,
      "party": 1585,
      "ances": 1586,
      "reality": 1587,
      "glad": 1588,
      "share": 1589,
      "marathon": 1590,
      "marathons": 1591,
      "climbing": 1592,
      "fighting": 1593,
      "norm": 1594,
      "video": 1595,
      "training": 1596,
      "imagin": 1597,
      "Hunan": 1598,
      "Pokemon": 1599,
      "vacation": 1600,
      "virtual": 1601,
      "aturday": 1602,
      "message": 1603,
      "prepared": 1604,
      "conversation": 1605,
      "scared": 1606,
      "discuss": 1607,
      "relaxing": 1608,
      "Admit": 1609,
      "Germany": 1610,
      "beside": 1611,
      "cycle": 1612,
      "electr": 1613,
      "half": 1614,
      "noodle": 1615,
      "syn": 1616,
      "sessions": 1617,
      "sharing": 1618,
      "weird": 1619,
      "progress": 1620,
      "Awesome": 1621,
      "Apparently": 1622,
      "Actually": 1623,
      "India": 1624,
      "Science": 1625,
      "Target": 1626,
      "dangerous": 1627,
      "storm": 1628,
      "special": 1629,
      "urope": 1630,
      "answer": 1631,
      "tomorrow": 1632,
      "youtube": 1633,
      "second": 1634,
      "consider": 1635,
      "!?": 1636,
      ".\"": 1637,
      ".,": 1638,
      "20": 1639,
      ">?": 1640,
      "Aven": 1641,
      "By": 1642,
      "Co": 1643,
      "Don": 1644,
      "Fam": 1645,
      "Get": 1646,
      "Hone": 1647,
      "Int": 1648,
      "Jazz": 1649,
      "King": 1650,
      "LA": 1651,
      "Lot": 1652,
      "Look": 1653,
      "Mor": 1654,
      "Mar": 1655,
      "Mate": 1656,
      "NK": 1657,
      "Oly": 1658,
      "Pe": 1659,
      "RI": 1660,
      "Sp": 1661,
      "St": 1662,
      "Ste": 1663,
      "Sapp": 1664,
      "See": 1665,
      "Saturday": 1666,
      "Try": 1667,
      "Tok": 1668,
      "Ug": 1669,
      "Wo": 1670,
      "War": 1671,
      "Yo": 1672,
      "Yep": 1673,
      "agre": 1674,
      "air": 1675,
      "bay": 1676,
      "bunch": 1677,
      "cas": 1678,
      "cti": 1679,
      "cif": 1680,
      "card": 1681,
      "char": 1682,
      "cise": 1683,
      "cult": 1684,
      "dry": 1685,
      "dies": 1686,
      "eg": 1687,
      "erest": 1688,
      "fi": 1689,
      "fly": 1690,
      "fall": 1691,
      "fant": 1692,
      "fake": 1693,
      "fry": 1694,
      "ga": 1695,
      "gle": 1696,
      "gers": 1697,
      "gave": 1698,
      "gular": 1699,
      "hou": 1700,
      "ie": 1701,
      "ium": 1702,
      "ist": 1703,
      "ial": 1704,
      "igh": 1705,
      "ipl": 1706,
      "ja": 1707,
      "kin": 1708,
      "king": 1709,
      "kale": 1710,
      "lar": 1711,
      "low": 1712,
      "lks": 1713,
      "line": 1714,
      "mis": 1715,
      "main": 1716,
      "mil": 1717,
      "making": 1718,
      "miss": 1719,
      "num": 1720,
      "non": 1721,
      "nes": 1722,
      "nas": 1723,
      "ners": 1724,
      "ore": 1725,
      "opp": 1726,
      "obst": 1727,
      "pha": 1728,
      "pac": 1729,
      "pass": 1730,
      "ption": 1731,
      "pull": 1732,
      "pump": 1733,
      "ru": 1734,
      "ris": 1735,
      "roo": 1736,
      "rones": 1737,
      "si": 1738,
      "sum": 1739,
      "son": 1740,
      "she": 1741,
      "swi": 1742,
      "squ": 1743,
      "song": 1744,
      "sim": 1745,
      "soup": 1746,
      "small": 1747,
      "ship": 1748,
      "tw": 1749,
      "tin": 1750,
      "tac": 1751,
      "tour": 1752,
      "takes": 1753,
      "vs": 1754,
      "van": 1755,
      "var": 1756,
      "vors": 1757,
      "ying": 1758,
      "zipl": 1759,
      "anish": 1760,
      "ouch": 1761,
      "ream": 1762,
      "rently": 1763,
      "requi": 1764,
      "regular": 1765,
      "ats": 1766,
      "ingful": 1767,
      "theory": 1768,
      "tom": 1769,
      "itar": 1770,
      "ites": 1771,
      "ition": 1772,
      "itute": 1773,
      "onse": 1774,
      "oro": 1775,
      "meal": 1776,
      "meant": 1777,
      "sts": 1778,
      "stics": 1779,
      "als": 1780,
      "alright": 1781,
      "haps": 1782,
      "enty": 1783,
      "isn": 1784,
      "ising": 1785,
      "isco": 1786,
      "ercise": 1787,
      "arti": 1788,
      "ario": 1789,
      "oot": 1790,
      "oogle": 1791,
      "chi": 1792,
      "chan": 1793,
      "chick": 1794,
      "chang": 1795,
      "lions": 1796,
      "sea": 1797,
      "sell": 1798,
      "kets": 1799,
      "leg": 1800,
      "anda": 1801,
      "hate": 1802,
      "otic": 1803,
      "ica": 1804,
      "icity": 1805,
      "llent": 1806,
      "dogs": 1807,
      "form": 1808,
      "fort": 1809,
      "forget": 1810,
      "weight": 1811,
      "acles": 1812,
      "eter": 1813,
      "etnam": 1814,
      "wife": 1815,
      "plenty": 1816,
      "tions": 1817,
      "road": 1818,
      "cover": 1819,
      "ambo": 1820,
      "host": 1821,
      "upcoming": 1822,
      "goodies": 1823,
      "log": 1824,
      "lose": 1825,
      "loso": 1826,
      "logi": 1827,
      "traffic": 1828,
      "icecream": 1829,
      "neat": 1830,
      "nts": 1831,
      "anywhere": 1832,
      "present": 1833,
      "preciate": 1834,
      "teas": 1835,
      "typic": 1836,
      "hike": 1837,
      "terri": 1838,
      "ifier": 1839,
      "ately": 1840,
      "lotion": 1841,
      "anta": 1842,
      "ush": 1843,
      "using": 1844,
      "exercise": 1845,
      "exotic": 1846,
      "plete": 1847,
      "green": 1848,
      "actly": 1849,
      "spot": 1850,
      "spea": 1851,
      "spent": 1852,
      "ttyl": 1853,
      "ulting": 1854,
      "avy": 1855,
      "gestion": 1856,
      "common": 1857,
      "complete": 1858,
      "thern": 1859,
      "conne": 1860,
      "useful": 1861,
      "igned": 1862,
      "Thrones": 1863,
      "post": 1864,
      "poss": 1865,
      "players": 1866,
      "affect": 1867,
      "folks": 1868,
      "gry": 1869,
      "white": 1870,
      "cave": 1871,
      "guage": 1872,
      "guitar": 1873,
      "feels": 1874,
      "illa": 1875,
      "ills": 1876,
      "favorites": 1877,
      "fine": 1878,
      "enjoyed": 1879,
      "Nope": 1880,
      "appreciate": 1881,
      "lived": 1882,
      "lives": 1883,
      "!!!!": 1884,
      "partner": 1885,
      "REDACTED_LI": 1886,
      "cloud": 1887,
      "perfect": 1888,
      "fishing": 1889,
      "owner": 1890,
      "calories": 1891,
      "others": 1892,
      "mental": 1893,
      "mentee": 1894,
      "raining": 1895,
      "suppose": 1896,
      "study": 1897,
      "bug": 1898,
      "helps": 1899,
      "azy": 1900,
      "famous": 1901,
      "skills": 1902,
      "mark": 1903,
      "market": 1904,
      "traveled": 1905,
      "Chris": 1906,
      "schedu": 1907,
      "turning": 1908,
      "strong": 1909,
      "strange": 1910,
      "stranger": 1911,
      "classes": 1912,
      "classifier": 1913,
      "crazy": 1914,
      "climate": 1915,
      "clients": 1916,
      "expert": 1917,
      "resort": 1918,
      "chef": 1919,
      "helping": 1920,
      "Trave": 1921,
      "cities": 1922,
      "stuffing": 1923,
      "couldn": 1924,
      "fiction": 1925,
      "ficial": 1926,
      "race": 1927,
      "traveling": 1928,
      "ancisco": 1929,
      "anime": 1930,
      "original": 1931,
      "originally": 1932,
      "Asian": 1933,
      "descri": 1934,
      "free": 1935,
      "fresh": 1936,
      "phone": 1937,
      "pingpong": 1938,
      "parents": 1939,
      "snowstorm": 1940,
      "keeping": 1941,
      "popular": 1942,
      "counting": 1943,
      "Likewise": 1944,
      "shame": 1945,
      "certain": 1946,
      "open": 1947,
      "southern": 1948,
      "videos": 1949,
      "gradu": 1950,
      "wonderful": 1951,
      "Francisco": 1952,
      "Mostly": 1953,
      "born": 1954,
      "emp": 1955,
      "emails": 1956,
      "kidding": 1957,
      "language": 1958,
      "mountains": 1959,
      "netflix": 1960,
      "melted": 1961,
      "chilling": 1962,
      "solut": 1963,
      "roller": 1964,
      "compet": 1965,
      "company": 1966,
      "distance": 1967,
      "distances": 1968,
      "suggestion": 1969,
      "Probably": 1970,
      "Vietnam": 1971,
      "honest": 1972,
      "hours": 1973,
      "philoso": 1974,
      "wanna": 1975,
      "techn": 1976,
      "excellent": 1977,
      "computers": 1978,
      "flavors": 1979,
      "survivors": 1980,
      "surprise": 1981,
      "general": 1982,
      "photos": 1983,
      "details": 1984,
      "future": 1985,
      "machine": 1986,
      "purpose": 1987,
      "routes": 1988,
      "specif": 1989,
      "sign": 1990,
      "tackle": 1991,
      "involves": 1992,
      "response": 1993,
      "topics": 1994,
      "street": 1995,
      "challeng": 1996,
      "spirit": 1997,
      "problem": 1998,
      "positive": 1999,
      "guilty": 2000,
      "profess": 2001,
      "scenario": 2002,
      "particip": 2003,
      "Neural": 2004,
      "literature": 2005,
      "writing": 2006,
      "racquetball": 2007,
      "electricity": 2008,
      "sync": 2009,
      "Family": 2010,
      "Honestly": 2011,
      "Interest": 2012,
      "Looking": 2013,
      "Marvel": 2014,
      "Mateo": 2015,
      "Olym": 2016,
      "People": 2017,
      "Sapporo": 2018,
      "Tokyo": 2019,
      "Uganda": 2020,
      "Woah": 2021,
      "agree": 2022,
      "ctive": 2023,
      "house": 2024,
      "number": 2025,
      "pumpkin": 2026,
      "summer": 2027,
      "vanilla": 2028,
      "requires": 2029,
      "chicken": 2030,
      "changed": 2031,
      "ambodia": 2032,
      "possible": 2033,
      "affected": 2034,
      "REDACTED_LINK": 2035,
      "schedule": 2036,
      "description": 2037,
      "Interesting": 2038,
      "10": 2039,
      "30": 2040,
      "99": 2041,
      ">,": 2042,
      "?!?": 2043,
      "Amer": 2044,
      "Afr": 2045,
      "Bl": 2046,
      "Bu": 2047,
      "Bus": 2048,
      "Cor": 2049,
      "Cho": 2050,
      "Cali": 2051,
      "Cru": 2052,
      "Cambodia": 2053,
      "Dep": 2054,
      "Ehh": 2055,
      "Europe": 2056,
      "Fre": 2057,
      "Food": 2058,
      "Fri": 2059,
      "Fir": 2060,
      "Gar": 2061,
      "Grand": 2062,
      "Hy": 2063,
      "Hok": 2064,
      "Ke": 2065,
      "Kar": 2066,
      "Kind": 2067,
      "Link": 2068,
      "Last": 2069,
      "Lok": 2070,
      "ML": 2071,
      "Mon": 2072,
      "Mand": 2073,
      "Mex": 2074,
      "Mine": 2075,
      "Mint": 2076,
      "Mau": 2077,
      "Mountain": 2078,
      "MRI": 2079,
      "Net": 2080,
      "ON": 2081,
      "Ooo": 2082,
      "Pl": 2083,
      "Pho": 2084,
      "Plan": 2085,
      "SF": 2086,
      "Se": 2087,
      "Sh": 2088,
      "Sw": 2089,
      "Sur": 2090,
      "Spart": 2091,
      "Santa": 2092,
      "Ta": 2093,
      "Te": 2094,
      "Tu": 2095,
      "Tre": 2096,
      "Ter": 2097,
      "Talk": 2098,
      "Two": 2099,
      "Tai": 2100,
      "Un": 2101,
      "Und": 2102,
      "Vu": 2103,
      "VER": 2104,
      "Wan": 2105,
      "Wed": 2106,
      "Will": 2107,
      "Yup": 2108,
      "Year": 2109,
      "ao": 2110,
      "ado": 2111,
      "athis": 2112,
      "aim": 2113,
      "apo": 2114,
      "bb": 2115,
      "bh": 2116,
      "bs": 2117,
      "ban": 2118,
      "ben": 2119,
      "bro": 2120,
      "bil": 2121,
      "bought": 2122,
      "cu": 2123,
      "cin": 2124,
      "cing": 2125,
      "cut": 2126,
      "cid": 2127,
      "cup": 2128,
      "cany": 2129,
      "cir": 2130,
      "cakes": 2131,
      "cket": 2132,
      "dou": 2133,
      "dit": 2134,
      "date": 2135,
      "dance": 2136,
      "danc": 2137,
      "dump": 2138,
      "eco": 2139,
      "either": 2140,
      "europe": 2141,
      "fa": 2142,
      "fing": 2143,
      "fit": 2144,
      "fas": 2145,
      "fet": 2146,
      "fil": 2147,
      "ffer": 2148,
      "fix": 2149,
      "foot": 2150,
      "fMRI": 2151,
      "gin": 2152,
      "gar": 2153,
      "gative": 2154,
      "google": 2155,
      "hn": 2156,
      "hu": 2157,
      "her": 2158,
      "hur": 2159,
      "hint": 2160,
      "iu": 2161,
      "ize": 2162,
      "jit": 2163,
      "jour": 2164,
      "jazz": 2165,
      "jiu": 2166,
      "kl": 2167,
      "kes": 2168,
      "kpop": 2169,
      "kai": 2170,
      "kitch": 2171,
      "lor": 2172,
      "lam": 2173,
      "law": 2174,
      "ming": 2175,
      "moo": 2176,
      "mand": 2177,
      "mun": 2178,
      "mir": 2179,
      "mig": 2180,
      "mine": 2181,
      "math": 2182,
      "ng": 2183,
      "nut": 2184,
      "ntry": 2185,
      "nation": 2186,
      "nia": 2187,
      "natur": 2188,
      "oc": 2189,
      "om": 2190,
      "oid": 2191,
      "oce": 2192,
      "ored": 2193,
      "oven": 2194,
      "odd": 2195,
      "odes": 2196,
      "pm": 2197,
      "ped": 2198,
      "pet": 2199,
      "phere": 2200,
      "pul": 2201,
      "pted": 2202,
      "pace": 2203,
      "pens": 2204,
      "rs": 2205,
      "rot": 2206,
      "rad": 2207,
      "rup": 2208,
      "raf": 2209,
      "rself": 2210,
      "rants": 2211,
      "rush": 2212,
      "sli": 2213,
      "sand": 2214,
      "send": 2215,
      "slo": 2216,
      "sus": 2217,
      "site": 2218,
      "sav": 2219,
      "sive": 2220,
      "ssed": 2221,
      "specially": 2222,
      "snor": 2223,
      "smoo": 2224,
      "tit": 2225,
      "tic": 2226,
      "tent": 2227,
      "task": 2228,
      "touch": 2229,
      "tbh": 2230,
      "uc": 2231,
      "ues": 2232,
      "urist": 2233,
      "vice": 2234,
      "vation": 2235,
      "voil": 2236,
      "wing": 2237,
      "wit": 2238,
      "ware": 2239,
      "wind": 2240,
      "ys": 2241,
      "yer": 2242,
      "zz": 2243,
      "˜€": 2244,
      "€¦": 2245,
      "ank": 2246,
      "anut": 2247,
      "another": 2248,
      "thum": 2249,
      "thus": 2250,
      "inde": 2251,
      "indep": 2252,
      "invit": 2253,
      "indoors": 2254,
      "ree": 2255,
      "reas": 2256,
      "reco": 2257,
      "revi": 2258,
      "rect": 2259,
      "resc": 2260,
      "reali": 2261,
      "recall": 2262,
      "resolut": 2263,
      "atter": 2264,
      "thes": 2265,
      "theme": 2266,
      "told": 2267,
      "topp": 2268,
      "tory": 2269,
      "total": 2270,
      "young": 2271,
      "veget": 2272,
      "vered": 2273,
      "velop": 2274,
      "ited": 2275,
      "itali": 2276,
      "itist": 2277,
      "onic": 2278,
      "onder": 2279,
      "onment": 2280,
      "oring": 2281,
      "orian": 2282,
      "orange": 2283,
      "meat": 2284,
      "mellow": 2285,
      "ster": 2286,
      "along": 2287,
      "alive": 2288,
      "aligned": 2289,
      "alorian": 2290,
      "hash": 2291,
      "hamas": 2292,
      "envir": 2293,
      "ism": 2294,
      "isine": 2295,
      "island": 2296,
      "ished": 2297,
      "isodes": 2298,
      "erman": 2299,
      "erstand": 2300,
      "arn": 2301,
      "oooo": 2302,
      "oomer": 2303,
      "ooked": 2304,
      "chin": 2305,
      "cher": 2306,
      "ched": 2307,
      "chea": 2308,
      "chur": 2309,
      "child": 2310,
      "become": 2311,
      "begin": 2312,
      "ayaking": 2313,
      "lic": 2314,
      "lization": 2315,
      "likes": 2316,
      "sever": 2317,
      "sets": 2318,
      "sewing": 2319,
      "keto": 2320,
      "keling": 2321,
      "soci": 2322,
      "ash": 2323,
      "asy": 2324,
      "ley": 2325,
      "lego": 2326,
      "lect": 2327,
      "leave": 2328,
      "level": 2329,
      "heart": 2330,
      "ico": 2331,
      "ices": 2332,
      "ication": 2333,
      "llar": 2334,
      "doc": 2335,
      "dog": 2336,
      "docum": 2337,
      "former": 2338,
      "fornia": 2339,
      "wed": 2340,
      "wear": 2341,
      "verse": 2342,
      "outdoors": 2343,
      "acup": 2344,
      "acter": 2345,
      "accur": 2346,
      "accounting": 2347,
      "accid": 2348,
      "utz": 2349,
      "arely": 2350,
      "abad": 2351,
      "abil": 2352,
      "ables": 2353,
      "absol": 2354,
      "ety": 2355,
      "unlike": 2356,
      "unct": 2357,
      "unfort": 2358,
      "unately": 2359,
      "wich": 2360,
      "ples": 2361,
      "plus": 2362,
      "plain": 2363,
      "ride": 2364,
      "riors": 2365,
      "ada": 2366,
      "ads": 2367,
      "admit": 2368,
      "adition": 2369,
      "ides": 2370,
      "iderman": 2371,
      "tip": 2372,
      "ties": 2373,
      "tips": 2374,
      "role": 2375,
      "rock": 2376,
      "cop": 2377,
      "coach": 2378,
      "moved": 2379,
      "amate": 2380,
      "ambit": 2381,
      "hoe": 2382,
      "hobb": 2383,
      "fell": 2384,
      "ups": 2385,
      "whats": 2386,
      "somehow": 2387,
      "somewhere": 2388,
      "worth": 2389,
      "worked": 2390,
      "worries": 2391,
      "endent": 2392,
      "butter": 2393,
      "lost": 2394,
      "tran": 2395,
      "trust": 2396,
      "trarian": 2397,
      "tradition": 2398,
      "peer": 2399,
      "peanut": 2400,
      "nel": 2401,
      "neither": 2402,
      "neigh": 2403,
      "negative": 2404,
      "allow": 2405,
      "cember": 2406,
      "cept": 2407,
      "prepar": 2408,
      "pretend": 2409,
      "preference": 2410,
      "works": 2411,
      "workout": 2412,
      "text": 2413,
      "terms": 2414,
      "astic": 2415,
      "Doing": 2416,
      "dest": 2417,
      "dele": 2418,
      "degre": 2419,
      "deep": 2420,
      "decent": 2421,
      "depress": 2422,
      "deals": 2423,
      "develop": 2424,
      "gets": 2425,
      "lotus": 2426,
      "uses": 2427,
      "usual": 2428,
      "exc": 2429,
      "extend": 2430,
      "expens": 2431,
      "pleasure": 2432,
      "hahaha": 2433,
      "akey": 2434,
      "planet": 2435,
      "els": 2436,
      "elitist": 2437,
      "spor": 2438,
      "spend": 2439,
      "spring": 2440,
      "avail": 2441,
      "quick": 2442,
      "quire": 2443,
      "comic": 2444,
      "commun": 2445,
      "earth": 2446,
      "earned": 2447,
      "weekends": 2448,
      "Yourself": 2449,
      "joke": 2450,
      "john": 2451,
      "short": 2452,
      "civi": 2453,
      "cigar": 2454,
      "vil": 2455,
      "vious": 2456,
      "loved": 2457,
      "conf": 2458,
      "contrarian": 2459,
      "impro": 2460,
      "imperson": 2461,
      "immig": 2462,
      "process": 2463,
      "Then": 2464,
      "Though": 2465,
      "poet": 2466,
      "posed": 2467,
      "forest": 2468,
      "grow": 2469,
      "grap": 2470,
      "groomer": 2471,
      "country": 2472,
      "giant": 2473,
      "gives": 2474,
      "ilar": 2475,
      "cage": 2476,
      "causes": 2477,
      "guing": 2478,
      "epy": 2479,
      "episodes": 2480,
      "triath": 2481,
      "Were": 2482,
      "gotten": 2483,
      "finished": 2484,
      "prote": 2485,
      "bets": 2486,
      "acking": 2487,
      "scam": 2488,
      "scifi": 2489,
      "apple": 2490,
      "apart": 2491,
      "tensive": 2492,
      "harsh": 2493,
      "Hahah": 2494,
      "everyday": 2495,
      "treal": 2496,
      "trees": 2497,
      "dern": 2498,
      "derabad": 2499,
      "ohh": 2500,
      "parts": 2501,
      "aging": 2502,
      "ages": 2503,
      "aged": 2504,
      "box": 2505,
      "anging": 2506,
      "angers": 2507,
      "owns": 2508,
      "ache": 2509,
      "died": 2510,
      "diet": 2511,
      "eaten": 2512,
      "ferment": 2513,
      "ments": 2514,
      "starting": 2515,
      "homemade": 2516,
      "personally": 2517,
      "creature": 2518,
      "created": 2519,
      "credit": 2520,
      "mble": 2521,
      "rainy": 2522,
      "rainforest": 2523,
      "suck": 2524,
      "subst": 2525,
      "supposed": 2526,
      "visiting": 2527,
      "bucket": 2528,
      "hhhh": 2529,
      "choice": 2530,
      "cholog": 2531,
      "bottom": 2532,
      "cookie": 2533,
      "puts": 2534,
      "diffic": 2535,
      "running": 2536,
      "alien": 2537,
      "flood": 2538,
      "flakey": 2539,
      "mashed": 2540,
      "stra": 2541,
      "strum": 2542,
      "strangers": 2543,
      "craf": 2544,
      "meaningful": 2545,
      "comedy": 2546,
      "reser": 2547,
      "result": 2548,
      "menu": 2549,
      "mention": 2550,
      "learned": 2551,
      "managed": 2552,
      "rather": 2553,
      "hopefully": 2554,
      "superman": 2555,
      "biggest": 2556,
      "drought": 2557,
      "picked": 2558,
      "thoughts": 2559,
      "merci": 2560,
      "seasons": 2561,
      "utely": 2562,
      "tionary": 2563,
      "experien": 2564,
      "brought": 2565,
      "browns": 2566,
      "catching": 2567,
      "names": 2568,
      "nament": 2569,
      "story": 2570,
      "teacher": 2571,
      "wrote": 2572,
      "wards": 2573,
      "staying": 2574,
      "offsite": 2575,
      "robots": 2576,
      "friendly": 2577,
      "???": 2578,
      "Anything": 2579,
      "Anyways": 2580,
      "corn": 2581,
      "correct": 2582,
      "clean": 2583,
      "clever": 2584,
      "racing": 2585,
      "watermel": 2586,
      "yoda": 2587,
      "depending": 2588,
      "healthier": 2589,
      "Tom": 2590,
      "Today": 2591,
      "White": 2592,
      "park": 2593,
      "color": 2594,
      "questions": 2595,
      "origins": 2596,
      "Although": 2597,
      "bahamas": 2598,
      "cats": 2599,
      "clothes": 2600,
      "dden": 2601,
      "ddle": 2602,
      "desk": 2603,
      "french": 2604,
      "figuring": 2605,
      "lands": 2606,
      "muscle": 2607,
      "sorts": 2608,
      "setting": 2609,
      "popcorn": 2610,
      "court": 2611,
      "breakfast": 2612,
      "auto": 2613,
      "audi": 2614,
      "glish": 2615,
      "nights": 2616,
      "pastry": 2617,
      "pastries": 2618,
      "tasty": 2619,
      "ketball": 2620,
      "mentorship": 2621,
      "volunteers": 2622,
      "Best": 2623,
      "Canada": 2624,
      "God": 2625,
      "Japanese": 2626,
      "berry": 2627,
      "bars": 2628,
      "carrot": 2629,
      "cross": 2630,
      "easier": 2631,
      "genre": 2632,
      "minat": 2633,
      "minute": 2634,
      "matters": 2635,
      "options": 2636,
      "soups": 2637,
      "single": 2638,
      "sunny": 2639,
      "beaches": 2640,
      "headache": 2641,
      "etceter": 2642,
      "sports": 2643,
      "joined": 2644,
      "imagine": 2645,
      "Something": 2646,
      "collected": 2647,
      "figured": 2648,
      "Deja": 2649,
      "December": 2650,
      "Exactly": 2651,
      "France": 2652,
      "Modern": 2653,
      "apparently": 2654,
      "boring": 2655,
      "kids": 2656,
      "nets": 2657,
      "pottery": 2658,
      "painting": 2659,
      "series": 2660,
      "sides": 2661,
      "advice": 2662,
      "conversations": 2663,
      "sugar": 2664,
      "crabs": 2665,
      "Everything": 2666,
      "Really": 2667,
      "View": 2668,
      "basically": 2669,
      "basketball": 2670,
      "currently": 2671,
      "cutest": 2672,
      "hunting": 2673,
      "hungry": 2674,
      "honestly": 2675,
      "kkkk": 2676,
      "lucky": 2677,
      "nnnn": 2678,
      "paper": 2679,
      "papers": 2680,
      "talks": 2681,
      "twists": 2682,
      "value": 2683,
      "attending": 2684,
      "lights": 2685,
      "activit": 2686,
      "activity": 2687,
      "actoring": 2688,
      "adventure": 2689,
      "adventures": 2690,
      "decid": 2691,
      "explain": 2692,
      "exploring": 2693,
      "except": 2694,
      "computer": 2695,
      "personality": 2696,
      "survive": 2697,
      "surprising": 2698,
      "photograp": 2699,
      "organization": 2700,
      "Games": 2701,
      "Perhaps": 2702,
      "Parlor": 2703,
      "burden": 2704,
      "chain": 2705,
      "efits": 2706,
      "facts": 2707,
      "humid": 2708,
      "hitting": 2709,
      "random": 2710,
      "vaulting": 2711,
      "refactoring": 2712,
      "chords": 2713,
      "lifting": 2714,
      "listen": 2715,
      "leaders": 2716,
      "decorate": 2717,
      "restaurant": 2718,
      "restaurants": 2719,
      "normal": 2720,
      "normally": 2721,
      "Pokemons": 2722,
      "considering": 2723,
      "Avengers": 2724,
      "Bye": 2725,
      "Getting": 2726,
      "Kingyo": 2727,
      "Lots": 2728,
      "Morning": 2729,
      "Spiderman": 2730,
      "Steph": 2731,
      "Warriors": 2732,
      "Yoga": 2733,
      "character": 2734,
      "culture": 2735,
      "eggs": 2736,
      "flying": 2737,
      "fantasy": 2738,
      "large": 2739,
      "miles": 2740,
      "nesdays": 2741,
      "nasium": 2742,
      "phase": 2743,
      "sized": 2744,
      "shell": 2745,
      "swim": 2746,
      "squash": 2747,
      "similar": 2748,
      "twice": 2749,
      "taco": 2750,
      "tournament": 2751,
      "vari": 2752,
      "zipline": 2753,
      "artificial": 2754,
      "channel": 2755,
      "formation": 2756,
      "logistics": 2757,
      "presentation": 2758,
      "typically": 2759,
      "terrible": 2760,
      "speak": 2761,
      "completely": 2762,
      "connect": 2763,
      "certainly": 2764,
      "graduated": 2765,
      "empathis": 2766,
      "suggestions": 2767,
      "philosophy": 2768,
      "technical": 2769,
      "specific": 2770,
      "challenging": 2771,
      "profession": 2772,
      "Olympic": 2773,
      "America": 2774,
      "Busy": 2775,
      "Corgi": 2776,
      "Chocolate": 2777,
      "California": 2778,
      "Cruz": 2779,
      "French": 2780,
      "First": 2781,
      "Hyderabad": 2782,
      "Hokkai": 2783,
      "Keto": 2784,
      "Karao": 2785,
      "Loki": 2786,
      "Mandalorian": 2787,
      "Mexico": 2788,
      "Netflix": 2789,
      "Planning": 2790,
      "Should": 2791,
      "Switch": 2792,
      "Spartan": 2793,
      "Tahoe": 2794,
      "Treasure": 2795,
      "Terminat": 2796,
      "Taiwan": 2797,
      "Understand": 2798,
      "VERY": 2799,
      "Wanna": 2800,
      "benefits": 2801,
      "billions": 2802,
      "cinating": 2803,
      "canyon": 2804,
      "fascinating": 2805,
      "fetched": 2806,
      "fixed": 2807,
      "jitsu": 2808,
      "journey": 2809,
      "klutz": 2810,
      "lawyer": 2811,
      "miracles": 2812,
      "natural": 2813,
      "ocean": 2814,
      "pulled": 2815,
      "rafting": 2816,
      "rushing": 2817,
      "sandwich": 2818,
      "slope": 2819,
      "sushi": 2820,
      "snorkeling": 2821,
      "smooth": 2822,
      "title": 2823,
      "touching": 2824,
      "voila": 2825,
      "thumbs": 2826,
      "indeed": 2827,
      "independent": 2828,
      "recovered": 2829,
      "realize": 2830,
      "toppings": 2831,
      "environment": 2832,
      "church": 2833,
      "several": 2834,
      "legos": 2835,
      "document": 2836,
      "outdoorsy": 2837,
      "acupunct": 2838,
      "accurate": 2839,
      "ability": 2840,
      "absolutely": 2841,
      "unfortunately": 2842,
      "amateur": 2843,
      "ambitious": 2844,
      "hobbies": 2845,
      "neighboring": 2846,
      "negatives": 2847,
      "degrees": 2848,
      "depressing": 2849,
      "extended": 2850,
      "expensive": 2851,
      "available": 2852,
      "civilization": 2853,
      "improve": 2854,
      "impersonate": 2855,
      "immigrants": 2856,
      "substitute": 2857,
      "chological": 2858,
      "difficult": 2859,
      "mentioned": 2860,
      "watermelon": 2861,
      "etcetera": 2862,
      "activities": 2863,
      "photography": 2864,
      "empathise": 2865,
      "Hokkaido": 2866,
      "Karaoke": 2867,
      "Understanding": 2868
    },
    "merges": [
      [
        "a",
        "n"
      ],
      [
        "t",
        "h"
      ],
      [
        "u",
        "m"
      ],
      [
        "i",
        "n"
      ],
      [
        "um",
        "an"
      ],
      [
        "H",
        "uman"
      ],
      [
        "o",
        "u"
      ],
      [
        "r",
        "e"
      ],
      [
        "a",
        "t"
      ],
      [
        "in",
        "g"
      ],
      [
        "th",
        "e"
      ],
      [
        "t",
        "o"
      ],
      [
        "y",
        "ou"
      ],
      [
        "v",
        "e"
      ],
      [
        "i",
        "t"
      ],
      [
        "o",
        "n"
      ],
      [
        "o",
        "r"
      ],
      [
        "m",
        "e"
      ],
      [
        "s",
        "t"
      ],
      [
        "a",
        "l"
      ],
      [
        "h",
        "a"
      ],
      [
        "e",
        "n"
      ],
      [
        "i",
        "s"
      ],
      [
        "e",
        "r"
      ],
      [
        "a",
        "r"
      ],
      [
        "o",
        "o"
      ],
      [
        "e",
        "s"
      ],
      [
        "o",
        "w"
      ],
      [
        "c",
        "h"
      ],
      [
        "b",
        "e"
      ],
      [
        "a",
        "y"
      ],
      [
        "l",
        "i"
      ],
      [
        "o",
        "f"
      ],
      [
        "l",
        "y"
      ],
      [
        "s",
        "e"
      ],
      [
        "k",
        "e"
      ],
      [
        "s",
        "o"
      ],
      [
        "a",
        "s"
      ],
      [
        "l",
        "e"
      ],
      [
        "an",
        "d"
      ],
      [
        "h",
        "at"
      ],
      [
        "o",
        "t"
      ],
      [
        "h",
        "e"
      ],
      [
        "i",
        "c"
      ],
      [
        "l",
        "l"
      ],
      [
        "d",
        "o"
      ],
      [
        "th",
        "at"
      ],
      [
        "f",
        "or"
      ],
      [
        "w",
        "e"
      ],
      [
        "ve",
        "r"
      ],
      [
        "ou",
        "t"
      ],
      [
        "ha",
        "ve"
      ],
      [
        "a",
        "c"
      ],
      [
        "u",
        "t"
      ],
      [
        "e",
        "d"
      ],
      [
        "a",
        "re"
      ],
      [
        "a",
        "b"
      ],
      [
        "oo",
        "d"
      ],
      [
        "g",
        "h"
      ],
      [
        "e",
        "t"
      ],
      [
        "u",
        "n"
      ],
      [
        "w",
        "i"
      ],
      [
        "li",
        "ke"
      ],
      [
        "l",
        "d"
      ],
      [
        "p",
        "l"
      ],
      [
        "r",
        "i"
      ],
      [
        "a",
        "d"
      ],
      [
        "i",
        "d"
      ],
      [
        "t",
        "i"
      ],
      [
        "d",
        "ay"
      ],
      [
        "g",
        "o"
      ],
      [
        "r",
        "o"
      ],
      [
        "c",
        "o"
      ],
      [
        "al",
        "ly"
      ],
      [
        "m",
        "o"
      ],
      [
        "you",
        "r"
      ],
      [
        "a",
        "m"
      ],
      [
        "h",
        "o"
      ],
      [
        "f",
        "e"
      ],
      [
        "ab",
        "out"
      ],
      [
        "u",
        "p"
      ],
      [
        "w",
        "hat"
      ],
      [
        "so",
        "me"
      ],
      [
        "I",
        "t"
      ],
      [
        "e",
        "a"
      ],
      [
        "g",
        "ood"
      ],
      [
        "w",
        "or"
      ],
      [
        ".",
        "."
      ],
      [
        "m",
        "y"
      ],
      [
        "en",
        "d"
      ],
      [
        "W",
        "hat"
      ],
      [
        "H",
        "i"
      ],
      [
        "ð",
        "Ÿ"
      ],
      [
        "b",
        "ut"
      ],
      [
        "l",
        "o"
      ],
      [
        "t",
        "r"
      ],
      [
        "in",
        "k"
      ],
      [
        "ou",
        "ld"
      ],
      [
        "ic",
        "e"
      ],
      [
        "p",
        "e"
      ],
      [
        "n",
        "e"
      ],
      [
        "wi",
        "th"
      ],
      [
        "w",
        "as"
      ],
      [
        "al",
        "l"
      ],
      [
        "th",
        "ing"
      ],
      [
        "gh",
        "t"
      ],
      [
        "u",
        "st"
      ],
      [
        "th",
        "ink"
      ],
      [
        "on",
        "e"
      ],
      [
        "he",
        "re"
      ],
      [
        "n",
        "d"
      ],
      [
        "n",
        "t"
      ],
      [
        "n",
        "ot"
      ],
      [
        "an",
        "y"
      ],
      [
        "ti",
        "me"
      ],
      [
        "c",
        "e"
      ],
      [
        "p",
        "re"
      ],
      [
        "wor",
        "k"
      ],
      [
        "n",
        "ow"
      ],
      [
        "u",
        "r"
      ],
      [
        "ver",
        "y"
      ],
      [
        "h",
        "ow"
      ],
      [
        "™",
        "‚"
      ],
      [
        "H",
        "ow"
      ],
      [
        "t",
        "e"
      ],
      [
        "t",
        "y"
      ],
      [
        "oo",
        "k"
      ],
      [
        "a",
        "me"
      ],
      [
        "c",
        "an"
      ],
      [
        "h",
        "i"
      ],
      [
        "i",
        "on"
      ],
      [
        "t",
        "er"
      ],
      [
        "i",
        "f"
      ],
      [
        "go",
        "ing"
      ],
      [
        "a",
        "st"
      ],
      [
        "at",
        "e"
      ],
      [
        "to",
        "o"
      ],
      [
        "D",
        "o"
      ],
      [
        "ou",
        "nd"
      ],
      [
        "d",
        "e"
      ],
      [
        "g",
        "et"
      ],
      [
        "l",
        "ot"
      ],
      [
        "an",
        "t"
      ],
      [
        "u",
        "s"
      ],
      [
        "it",
        "e"
      ],
      [
        "e",
        "x"
      ],
      [
        "u",
        "re"
      ],
      [
        "p",
        "le"
      ],
      [
        "ou",
        "gh"
      ],
      [
        "f",
        "un"
      ],
      [
        "j",
        "ust"
      ],
      [
        "th",
        "is"
      ],
      [
        "k",
        "s"
      ],
      [
        "in",
        "d"
      ],
      [
        "g",
        "re"
      ],
      [
        "ha",
        "ha"
      ],
      [
        "en",
        "t"
      ],
      [
        "the",
        "re"
      ],
      [
        "a",
        "in"
      ],
      [
        "er",
        "s"
      ],
      [
        "H",
        "a"
      ],
      [
        "a",
        "ke"
      ],
      [
        "oo",
        "l"
      ],
      [
        "pl",
        "an"
      ],
      [
        "O",
        "h"
      ],
      [
        "ac",
        "t"
      ],
      [
        "re",
        "ally"
      ],
      [
        "ea",
        "h"
      ],
      [
        "d",
        "id"
      ],
      [
        "i",
        "r"
      ],
      [
        "w",
        "ould"
      ],
      [
        "be",
        "en"
      ],
      [
        "tr",
        "y"
      ],
      [
        "at",
        "ch"
      ],
      [
        "H",
        "e"
      ],
      [
        "is",
        "h"
      ],
      [
        "e",
        "l"
      ],
      [
        "s",
        "p"
      ],
      [
        "t",
        "ty"
      ],
      [
        "u",
        "l"
      ],
      [
        "we",
        "e"
      ],
      [
        "a",
        "v"
      ],
      [
        "g",
        "e"
      ],
      [
        "q",
        "u"
      ],
      [
        "ar",
        "t"
      ],
      [
        "E",
        "D"
      ],
      [
        "u",
        "ch"
      ],
      [
        "wi",
        "ll"
      ],
      [
        "co",
        "m"
      ],
      [
        "e",
        "ar"
      ],
      [
        "k",
        "now"
      ],
      [
        "n",
        "ice"
      ],
      [
        "the",
        "r"
      ],
      [
        "ar",
        "d"
      ],
      [
        "ro",
        "m"
      ],
      [
        "wee",
        "k"
      ],
      [
        "Y",
        "ou"
      ],
      [
        "d",
        "on"
      ],
      [
        "j",
        "o"
      ],
      [
        "u",
        "ally"
      ],
      [
        "mo",
        "re"
      ],
      [
        "s",
        "h"
      ],
      [
        "re",
        "ad"
      ],
      [
        "es",
        "s"
      ],
      [
        "c",
        "i"
      ],
      [
        "v",
        "i"
      ],
      [
        "on",
        "g"
      ],
      [
        "se",
        "e"
      ],
      [
        "f",
        "rom"
      ],
      [
        "n",
        "o"
      ],
      [
        "v",
        "ing"
      ],
      [
        "an",
        "ks"
      ],
      [
        "lo",
        "ve"
      ],
      [
        "pre",
        "tty"
      ],
      [
        "c",
        "on"
      ],
      [
        "i",
        "m"
      ],
      [
        "m",
        "uch"
      ],
      [
        "ound",
        "s"
      ],
      [
        "p",
        "p"
      ],
      [
        "u",
        "se"
      ],
      [
        "w",
        "ay"
      ],
      [
        "i",
        "g"
      ],
      [
        "i",
        "ght"
      ],
      [
        "p",
        "ro"
      ],
      [
        "the",
        "y"
      ],
      [
        "we",
        "ll"
      ],
      [
        "gre",
        "at"
      ],
      [
        "T",
        "h"
      ],
      [
        "T",
        "he"
      ],
      [
        "p",
        "o"
      ],
      [
        "pl",
        "ay"
      ],
      [
        "..",
        "."
      ],
      [
        "T",
        "hat"
      ],
      [
        "a",
        "f"
      ],
      [
        "f",
        "o"
      ],
      [
        "f",
        "ri"
      ],
      [
        "the",
        "m"
      ],
      [
        "end",
        "s"
      ],
      [
        "c",
        "t"
      ],
      [
        "g",
        "r"
      ],
      [
        "at",
        "ion"
      ],
      [
        "mo",
        "st"
      ],
      [
        "a",
        "k"
      ],
      [
        "c",
        "ou"
      ],
      [
        "e",
        "ve"
      ],
      [
        "f",
        "ood"
      ],
      [
        "g",
        "i"
      ],
      [
        "w",
        "h"
      ],
      [
        "w",
        "atch"
      ],
      [
        "f",
        "av"
      ],
      [
        "t",
        "ing"
      ],
      [
        "th",
        "ough"
      ],
      [
        "ha",
        "d"
      ],
      [
        "pl",
        "ac"
      ],
      [
        "day",
        "s"
      ],
      [
        "i",
        "l"
      ],
      [
        "o",
        "ple"
      ],
      [
        "re",
        "st"
      ],
      [
        "b",
        "ook"
      ],
      [
        "c",
        "a"
      ],
      [
        "g",
        "u"
      ],
      [
        "w",
        "ant"
      ],
      [
        "do",
        "ing"
      ],
      [
        "fe",
        "el"
      ],
      [
        "Y",
        "es"
      ],
      [
        "c",
        "ool"
      ],
      [
        "e",
        "p"
      ],
      [
        "t",
        "ri"
      ],
      [
        "y",
        "ear"
      ],
      [
        "or",
        "t"
      ],
      [
        "al",
        "so"
      ],
      [
        "n",
        "ing"
      ],
      [
        "s",
        "ounds"
      ],
      [
        "y",
        "eah"
      ],
      [
        "pe",
        "ople"
      ],
      [
        "act",
        "ually"
      ],
      [
        "W",
        "e"
      ],
      [
        "i",
        "ll"
      ],
      [
        "it",
        "y"
      ],
      [
        "se",
        "l"
      ],
      [
        "g",
        "ot"
      ],
      [
        "l",
        "ast"
      ],
      [
        "fav",
        "or"
      ],
      [
        "f",
        "in"
      ],
      [
        "k",
        "ind"
      ],
      [
        "p",
        "r"
      ],
      [
        "r",
        "y"
      ],
      [
        "the",
        "n"
      ],
      [
        "en",
        "jo"
      ],
      [
        "be",
        "t"
      ],
      [
        "ll",
        "o"
      ],
      [
        "id",
        "e"
      ],
      [
        "hi",
        "ch"
      ],
      [
        "sh",
        "ould"
      ],
      [
        "fo",
        "re"
      ],
      [
        "sel",
        "f"
      ],
      [
        "enjo",
        "y"
      ],
      [
        "S",
        "o"
      ],
      [
        "i",
        "es"
      ],
      [
        "w",
        "here"
      ],
      [
        "be",
        "fore"
      ],
      [
        "ac",
        "k"
      ],
      [
        "a",
        "ve"
      ],
      [
        "b",
        "y"
      ],
      [
        "l",
        "ate"
      ],
      [
        "o",
        "l"
      ],
      [
        "s",
        "c"
      ],
      [
        "w",
        "ho"
      ],
      [
        "ou",
        "r"
      ],
      [
        "ri",
        "ght"
      ],
      [
        "mo",
        "vi"
      ],
      [
        "N",
        "o"
      ],
      [
        "a",
        "p"
      ],
      [
        "t",
        "en"
      ],
      [
        "th",
        "anks"
      ],
      [
        "ha",
        "r"
      ],
      [
        "li",
        "ve"
      ],
      [
        "ne",
        "ver"
      ],
      [
        "Ha",
        "ha"
      ],
      [
        "week",
        "end"
      ],
      [
        "b",
        "it"
      ],
      [
        "c",
        "k"
      ],
      [
        "e",
        "very"
      ],
      [
        "f",
        "ar"
      ],
      [
        "i",
        "ve"
      ],
      [
        "l",
        "ong"
      ],
      [
        "m",
        "on"
      ],
      [
        "o",
        "ver"
      ],
      [
        "t",
        "re"
      ],
      [
        "ou",
        "s"
      ],
      [
        "me",
        "et"
      ],
      [
        "al",
        "k"
      ],
      [
        "he",
        "ard"
      ],
      [
        "ic",
        "k"
      ],
      [
        "ho",
        "li"
      ],
      [
        "fri",
        "ends"
      ],
      [
        "favor",
        "ite"
      ],
      [
        "!",
        "!"
      ],
      [
        "A",
        "C"
      ],
      [
        "R",
        "ED"
      ],
      [
        "T",
        "ED"
      ],
      [
        "Y",
        "eah"
      ],
      [
        "a",
        "w"
      ],
      [
        "d",
        "er"
      ],
      [
        "g",
        "ame"
      ],
      [
        "l",
        "ook"
      ],
      [
        "o",
        "h"
      ],
      [
        "p",
        "art"
      ],
      [
        "u",
        "e"
      ],
      [
        "ha",
        "s"
      ],
      [
        "as",
        "s"
      ],
      [
        "le",
        "d"
      ],
      [
        "fe",
        "re"
      ],
      [
        "wh",
        "en"
      ],
      [
        "AC",
        "TED"
      ],
      [
        "RED",
        "ACTED"
      ],
      [
        "REDACTED",
        "_"
      ],
      [
        "E",
        "R"
      ],
      [
        "N",
        "e"
      ],
      [
        "a",
        "g"
      ],
      [
        "c",
        "l"
      ],
      [
        "f",
        "ul"
      ],
      [
        "p",
        "er"
      ],
      [
        "p",
        "ers"
      ],
      [
        "s",
        "s"
      ],
      [
        "an",
        "ce"
      ],
      [
        "in",
        "e"
      ],
      [
        "in",
        "te"
      ],
      [
        "to",
        "day"
      ],
      [
        "do",
        "es"
      ],
      [
        "plan",
        "s"
      ],
      [
        ":",
        ")"
      ],
      [
        "B",
        "ut"
      ],
      [
        "M",
        "y"
      ],
      [
        "b",
        "o"
      ],
      [
        "f",
        "ish"
      ],
      [
        "m",
        "ake"
      ],
      [
        "v",
        "is"
      ],
      [
        "w",
        "hich"
      ],
      [
        "an",
        "g"
      ],
      [
        "in",
        "to"
      ],
      [
        "ow",
        "n"
      ],
      [
        "have",
        "n"
      ],
      [
        "Ha",
        "ve"
      ],
      [
        "He",
        "y"
      ],
      [
        "inte",
        "rest"
      ],
      [
        "A",
        "re"
      ],
      [
        "N",
        "ice"
      ],
      [
        "T",
        "ER"
      ],
      [
        "a",
        "ch"
      ],
      [
        "b",
        "ad"
      ],
      [
        "c",
        "al"
      ],
      [
        "d",
        "i"
      ],
      [
        "e",
        "at"
      ],
      [
        "f",
        "er"
      ],
      [
        "m",
        "ay"
      ],
      [
        "o",
        "ther"
      ],
      [
        "s",
        "ay"
      ],
      [
        "me",
        "nt"
      ],
      [
        "st",
        "art"
      ],
      [
        "se",
        "en"
      ],
      [
        "ho",
        "me"
      ],
      [
        "lo",
        "l"
      ],
      [
        "thing",
        "s"
      ],
      [
        "He",
        "llo"
      ],
      [
        "way",
        "s"
      ],
      [
        "plac",
        "e"
      ],
      [
        "bet",
        "ter"
      ],
      [
        "REDACTED_",
        "TER"
      ],
      [
        "pers",
        "on"
      ],
      [
        "REDACTED_TER",
        "M"
      ],
      [
        "c",
        "re"
      ],
      [
        "l",
        "it"
      ],
      [
        "m",
        "b"
      ],
      [
        "n",
        "y"
      ],
      [
        "r",
        "ain"
      ],
      [
        "s",
        "u"
      ],
      [
        "s",
        "up"
      ],
      [
        "s",
        "how"
      ],
      [
        "s",
        "ure"
      ],
      [
        "x",
        "t"
      ],
      [
        "y",
        "es"
      ],
      [
        "at",
        "er"
      ],
      [
        "st",
        "u"
      ],
      [
        "en",
        "ce"
      ],
      [
        "some",
        "thing"
      ],
      [
        "gi",
        "ving"
      ],
      [
        "vis",
        "it"
      ],
      [
        "b",
        "u"
      ],
      [
        "b",
        "ack"
      ],
      [
        "h",
        "h"
      ],
      [
        "h",
        "y"
      ],
      [
        "i",
        "ly"
      ],
      [
        "o",
        "k"
      ],
      [
        "t",
        "alk"
      ],
      [
        "w",
        "ow"
      ],
      [
        "to",
        "r"
      ],
      [
        "on",
        "ly"
      ],
      [
        "ch",
        "o"
      ],
      [
        "be",
        "st"
      ],
      [
        "li",
        "fe"
      ],
      [
        "he",
        "l"
      ],
      [
        "ab",
        "le"
      ],
      [
        "tri",
        "ed"
      ],
      [
        "a",
        "z"
      ],
      [
        "b",
        "ot"
      ],
      [
        "c",
        "ook"
      ],
      [
        "f",
        "am"
      ],
      [
        "m",
        "m"
      ],
      [
        "p",
        "ut"
      ],
      [
        "s",
        "k"
      ],
      [
        "s",
        "ame"
      ],
      [
        "t",
        "ake"
      ],
      [
        "ou",
        "ght"
      ],
      [
        "the",
        "se"
      ],
      [
        "un",
        "ch"
      ],
      [
        "ne",
        "xt"
      ],
      [
        "try",
        "ing"
      ],
      [
        "qu",
        "e"
      ],
      [
        "af",
        "ter"
      ],
      [
        "gu",
        "ess"
      ],
      [
        "interest",
        "ing"
      ],
      [
        "W",
        "here"
      ],
      [
        "b",
        "ab"
      ],
      [
        "d",
        "if"
      ],
      [
        "f",
        "ind"
      ],
      [
        "m",
        "ar"
      ],
      [
        "o",
        "se"
      ],
      [
        "p",
        "i"
      ],
      [
        "p",
        "s"
      ],
      [
        "r",
        "un"
      ],
      [
        "w",
        "ent"
      ],
      [
        "on",
        "s"
      ],
      [
        "al",
        "i"
      ],
      [
        "tr",
        "ave"
      ],
      [
        "ca",
        "use"
      ],
      [
        "C",
        "h"
      ],
      [
        "T",
        "here"
      ],
      [
        "f",
        "f"
      ],
      [
        "f",
        "l"
      ],
      [
        "m",
        "as"
      ],
      [
        "n",
        "a"
      ],
      [
        "s",
        "ch"
      ],
      [
        "t",
        "ur"
      ],
      [
        "th",
        "ose"
      ],
      [
        "st",
        "r"
      ],
      [
        "ha",
        "pp"
      ],
      [
        "ri",
        "st"
      ],
      [
        "ad",
        "e"
      ],
      [
        "Th",
        "anks"
      ],
      [
        "holi",
        "days"
      ],
      [
        "cl",
        "ass"
      ],
      [
        "c",
        "r"
      ],
      [
        "c",
        "li"
      ],
      [
        "d",
        "own"
      ],
      [
        "e",
        "ver"
      ],
      [
        "f",
        "ir"
      ],
      [
        "m",
        "any"
      ],
      [
        "t",
        "le"
      ],
      [
        "w",
        "a"
      ],
      [
        "y",
        "ea"
      ],
      [
        "th",
        "an"
      ],
      [
        "it",
        "s"
      ],
      [
        "me",
        "an"
      ],
      [
        "se",
        "d"
      ],
      [
        "ke",
        "y"
      ],
      [
        "co",
        "me"
      ],
      [
        "co",
        "ld"
      ],
      [
        "wor",
        "ld"
      ],
      [
        "ne",
        "ed"
      ],
      [
        "ex",
        "per"
      ],
      [
        "read",
        "y"
      ],
      [
        "cou",
        "ple"
      ],
      [
        "har",
        "d"
      ],
      [
        "lit",
        "tle"
      ],
      [
        "J",
        "ust"
      ],
      [
        "N",
        "ot"
      ],
      [
        "a",
        "th"
      ],
      [
        "b",
        "le"
      ],
      [
        "l",
        "unch"
      ],
      [
        "m",
        "ade"
      ],
      [
        "t",
        "u"
      ],
      [
        "w",
        "on"
      ],
      [
        "re",
        "d"
      ],
      [
        "re",
        "s"
      ],
      [
        "or",
        "s"
      ],
      [
        "me",
        "n"
      ],
      [
        "al",
        "ways"
      ],
      [
        "ch",
        "e"
      ],
      [
        "le",
        "ar"
      ],
      [
        "id",
        "ea"
      ],
      [
        "co",
        "late"
      ],
      [
        "fe",
        "w"
      ],
      [
        "any",
        "thing"
      ],
      [
        "com",
        "ing"
      ],
      [
        "ak",
        "es"
      ],
      [
        "plac",
        "es"
      ],
      [
        "Ne",
        "w"
      ],
      [
        "hel",
        "p"
      ],
      [
        "fam",
        "ily"
      ],
      [
        "dif",
        "fere"
      ],
      [
        "H",
        "o"
      ],
      [
        "T",
        "r"
      ],
      [
        "W",
        "ow"
      ],
      [
        "c",
        "it"
      ],
      [
        "m",
        "an"
      ],
      [
        "r",
        "a"
      ],
      [
        "€",
        "™"
      ],
      [
        "ing",
        "s"
      ],
      [
        "on",
        "ce"
      ],
      [
        "or",
        "k"
      ],
      [
        "st",
        "ill"
      ],
      [
        "ar",
        "y"
      ],
      [
        "be",
        "cause"
      ],
      [
        "ho",
        "pe"
      ],
      [
        "ne",
        "w"
      ],
      [
        "time",
        "s"
      ],
      [
        "pre",
        "fer"
      ],
      [
        "use",
        "d"
      ],
      [
        "movi",
        "e"
      ],
      [
        "movi",
        "es"
      ],
      [
        "mon",
        "th"
      ],
      [
        "cal",
        "led"
      ],
      [
        "sup",
        "er"
      ],
      [
        "stu",
        "ff"
      ],
      [
        "fir",
        "st"
      ],
      [
        "differe",
        "nt"
      ],
      [
        "C",
        "ool"
      ],
      [
        "G",
        "re"
      ],
      [
        "G",
        "ood"
      ],
      [
        "I",
        "s"
      ],
      [
        "b",
        "us"
      ],
      [
        "b",
        "ig"
      ],
      [
        "c",
        "ould"
      ],
      [
        "c",
        "ent"
      ],
      [
        "d",
        "r"
      ],
      [
        "j",
        "e"
      ],
      [
        "m",
        "s"
      ],
      [
        "m",
        "ight"
      ],
      [
        "p",
        "ic"
      ],
      [
        "s",
        "ide"
      ],
      [
        "v",
        "ol"
      ],
      [
        "th",
        "ought"
      ],
      [
        "me",
        "r"
      ],
      [
        "st",
        "ion"
      ],
      [
        "ha",
        "ving"
      ],
      [
        "se",
        "as"
      ],
      [
        "we",
        "re"
      ],
      [
        "ut",
        "e"
      ],
      [
        "ti",
        "on"
      ],
      [
        "think",
        "ing"
      ],
      [
        "work",
        "ing"
      ],
      [
        "ur",
        "ing"
      ],
      [
        "plan",
        "ning"
      ],
      [
        "im",
        "p"
      ],
      [
        "ak",
        "ing"
      ],
      [
        "pr",
        "act"
      ],
      [
        "cho",
        "colate"
      ],
      [
        "rist",
        "mas"
      ],
      [
        "exper",
        "i"
      ],
      [
        "b",
        "r"
      ],
      [
        "b",
        "all"
      ],
      [
        "c",
        "atch"
      ],
      [
        "f",
        "ic"
      ],
      [
        "n",
        "ame"
      ],
      [
        "o",
        "me"
      ],
      [
        "s",
        "to"
      ],
      [
        "s",
        "ur"
      ],
      [
        "t",
        "s"
      ],
      [
        "t",
        "ea"
      ],
      [
        "w",
        "r"
      ],
      [
        "w",
        "ard"
      ],
      [
        "y",
        "et"
      ],
      [
        "th",
        "r"
      ],
      [
        "re",
        "se"
      ],
      [
        "the",
        "ir"
      ],
      [
        "st",
        "ay"
      ],
      [
        "st",
        "and"
      ],
      [
        "al",
        "ready"
      ],
      [
        "is",
        "e"
      ],
      [
        "er",
        "y"
      ],
      [
        "ar",
        "ch"
      ],
      [
        "ar",
        "ound"
      ],
      [
        "es",
        "ome"
      ],
      [
        "of",
        "f"
      ],
      [
        "of",
        "ten"
      ],
      [
        "as",
        "k"
      ],
      [
        "le",
        "ep"
      ],
      [
        "he",
        "al"
      ],
      [
        "ic",
        "al"
      ],
      [
        "ver",
        "s"
      ],
      [
        "ro",
        "bot"
      ],
      [
        "your",
        "self"
      ],
      [
        "my",
        "self"
      ],
      [
        "pe",
        "ci"
      ],
      [
        "get",
        "ting"
      ],
      [
        "ant",
        "s"
      ],
      [
        "ite",
        "ly"
      ],
      [
        "read",
        "ing"
      ],
      [
        "Th",
        "is"
      ],
      [
        "fri",
        "end"
      ],
      [
        "eve",
        "nt"
      ],
      [
        "fin",
        "itely"
      ],
      [
        "sk",
        "i"
      ],
      [
        "bab",
        "ly"
      ],
      [
        "sch",
        "ool"
      ],
      [
        "Ho",
        "pe"
      ],
      [
        "Gre",
        "at"
      ],
      [
        "je",
        "ct"
      ],
      [
        "rese",
        "arch"
      ],
      [
        "?",
        "?"
      ],
      [
        "A",
        "ny"
      ],
      [
        "V",
        "ery"
      ],
      [
        "Y",
        "ork"
      ],
      [
        "a",
        "h"
      ],
      [
        "a",
        "ge"
      ],
      [
        "c",
        "or"
      ],
      [
        "c",
        "le"
      ],
      [
        "d",
        "one"
      ],
      [
        "i",
        "an"
      ],
      [
        "n",
        "ce"
      ],
      [
        "r",
        "ac"
      ],
      [
        "s",
        "leep"
      ],
      [
        "w",
        "ater"
      ],
      [
        "y",
        "o"
      ],
      [
        "in",
        "ter"
      ],
      [
        "ou",
        "p"
      ],
      [
        "or",
        "ry"
      ],
      [
        "be",
        "li"
      ],
      [
        "he",
        "ar"
      ],
      [
        "de",
        "p"
      ],
      [
        "de",
        "finitely"
      ],
      [
        "ex",
        "cit"
      ],
      [
        "pro",
        "ject"
      ],
      [
        "most",
        "ly"
      ],
      [
        "eve",
        "n"
      ],
      [
        "look",
        "ing"
      ],
      [
        "cre",
        "am"
      ],
      [
        "mb",
        "er"
      ],
      [
        "talk",
        "ing"
      ],
      [
        "az",
        "ing"
      ],
      [
        "trave",
        "l"
      ],
      [
        "happ",
        "en"
      ],
      [
        "wa",
        "it"
      ],
      [
        "bus",
        "y"
      ],
      [
        "seas",
        "on"
      ],
      [
        "pract",
        "ice"
      ],
      [
        "thr",
        "ough"
      ],
      [
        "heal",
        "th"
      ],
      [
        "beli",
        "eve"
      ],
      [
        "E",
        "ver"
      ],
      [
        "H",
        "mm"
      ],
      [
        "L",
        "ol"
      ],
      [
        "M",
        "ay"
      ],
      [
        "S",
        "ounds"
      ],
      [
        "T",
        "o"
      ],
      [
        "W",
        "h"
      ],
      [
        "a",
        "il"
      ],
      [
        "b",
        "re"
      ],
      [
        "d",
        "y"
      ],
      [
        "d",
        "uring"
      ],
      [
        "g",
        "y"
      ],
      [
        "g",
        "on"
      ],
      [
        "l",
        "ater"
      ],
      [
        "m",
        "or"
      ],
      [
        "m",
        "ind"
      ],
      [
        "m",
        "akes"
      ],
      [
        "n",
        "er"
      ],
      [
        "n",
        "ed"
      ],
      [
        "p",
        "ar"
      ],
      [
        "s",
        "aw"
      ],
      [
        "t",
        "ed"
      ],
      [
        "an",
        "c"
      ],
      [
        "an",
        "i"
      ],
      [
        "an",
        "ge"
      ],
      [
        "re",
        "cent"
      ],
      [
        "at",
        "ure"
      ],
      [
        "ve",
        "n"
      ],
      [
        "or",
        "ig"
      ],
      [
        "be",
        "ing"
      ],
      [
        "so",
        "on"
      ],
      [
        "un",
        "der"
      ],
      [
        "co",
        "l"
      ],
      [
        "some",
        "times"
      ],
      [
        "ne",
        "y"
      ],
      [
        "ty",
        "pe"
      ],
      [
        "hi",
        "gh"
      ],
      [
        "did",
        "n"
      ],
      [
        "The",
        "y"
      ],
      [
        "wh",
        "y"
      ],
      [
        "book",
        "s"
      ],
      [
        "feel",
        "ing"
      ],
      [
        "tri",
        "p"
      ],
      [
        "may",
        "be"
      ],
      [
        "show",
        "s"
      ],
      [
        "que",
        "stion"
      ],
      [
        "Thanks",
        "giving"
      ],
      [
        "che",
        "ck"
      ],
      [
        "Tr",
        "ue"
      ],
      [
        "imp",
        "ort"
      ],
      [
        "experi",
        "ence"
      ],
      [
        "gon",
        "na"
      ],
      [
        "orig",
        "in"
      ],
      [
        "A",
        "h"
      ],
      [
        "A",
        "l"
      ],
      [
        "A",
        "s"
      ],
      [
        "A",
        "hh"
      ],
      [
        "I",
        "f"
      ],
      [
        "L",
        "i"
      ],
      [
        "L",
        "et"
      ],
      [
        "S",
        "ure"
      ],
      [
        "W",
        "hy"
      ],
      [
        "a",
        "go"
      ],
      [
        "b",
        "a"
      ],
      [
        "c",
        "at"
      ],
      [
        "c",
        "lo"
      ],
      [
        "c",
        "us"
      ],
      [
        "d",
        "d"
      ],
      [
        "d",
        "is"
      ],
      [
        "d",
        "es"
      ],
      [
        "f",
        "re"
      ],
      [
        "f",
        "ig"
      ],
      [
        "h",
        "ot"
      ],
      [
        "i",
        "x"
      ],
      [
        "l",
        "and"
      ],
      [
        "l",
        "ess"
      ],
      [
        "m",
        "us"
      ],
      [
        "p",
        "h"
      ],
      [
        "p",
        "ing"
      ],
      [
        "p",
        "are"
      ],
      [
        "p",
        "ick"
      ],
      [
        "p",
        "hy"
      ],
      [
        "s",
        "it"
      ],
      [
        "s",
        "en"
      ],
      [
        "s",
        "now"
      ],
      [
        "s",
        "ci"
      ],
      [
        "s",
        "ort"
      ],
      [
        "t",
        "end"
      ],
      [
        "w",
        "o"
      ],
      [
        "in",
        "t"
      ],
      [
        "ou",
        "nt"
      ],
      [
        "re",
        "al"
      ],
      [
        "re",
        "com"
      ],
      [
        "ve",
        "s"
      ],
      [
        "me",
        "d"
      ],
      [
        "me",
        "nd"
      ],
      [
        "st",
        "e"
      ],
      [
        "en",
        "ough"
      ],
      [
        "is",
        "s"
      ],
      [
        "se",
        "t"
      ],
      [
        "ke",
        "d"
      ],
      [
        "ke",
        "ep"
      ],
      [
        "he",
        "y"
      ],
      [
        "for",
        "ward"
      ],
      [
        "un",
        "te"
      ],
      [
        "am",
        "azing"
      ],
      [
        "It",
        "s"
      ],
      [
        "nt",
        "ly"
      ],
      [
        "te",
        "am"
      ],
      [
        "ame",
        "n"
      ],
      [
        "hi",
        "m"
      ],
      [
        "ion",
        "s"
      ],
      [
        "el",
        "se"
      ],
      [
        "pp",
        "ing"
      ],
      [
        "pro",
        "bably"
      ],
      [
        "po",
        "p"
      ],
      [
        "play",
        "ing"
      ],
      [
        "play",
        "ed"
      ],
      [
        "cou",
        "r"
      ],
      [
        "cou",
        "nt"
      ],
      [
        "We",
        "ll"
      ],
      [
        "who",
        "le"
      ],
      [
        "every",
        "thing"
      ],
      [
        "tre",
        "e"
      ],
      [
        "holi",
        "day"
      ],
      [
        "fere",
        "nce"
      ],
      [
        "ang",
        "er"
      ],
      [
        "month",
        "s"
      ],
      [
        "bre",
        "ak"
      ],
      [
        "import",
        "ant"
      ],
      [
        "Li",
        "ke"
      ],
      [
        "recom",
        "mend"
      ],
      [
        "D",
        "id"
      ],
      [
        "I",
        "n"
      ],
      [
        "O",
        "k"
      ],
      [
        "a",
        "u"
      ],
      [
        "a",
        "ther"
      ],
      [
        "c",
        "are"
      ],
      [
        "c",
        "ity"
      ],
      [
        "d",
        "in"
      ],
      [
        "d",
        "ri"
      ],
      [
        "f",
        "an"
      ],
      [
        "g",
        "l"
      ],
      [
        "i",
        "a"
      ],
      [
        "i",
        "er"
      ],
      [
        "n",
        "is"
      ],
      [
        "n",
        "ight"
      ],
      [
        "o",
        "s"
      ],
      [
        "o",
        "ld"
      ],
      [
        "o",
        "il"
      ],
      [
        "p",
        "ast"
      ],
      [
        "s",
        "ha"
      ],
      [
        "s",
        "ho"
      ],
      [
        "s",
        "ick"
      ],
      [
        "t",
        "ast"
      ],
      [
        "u",
        "ll"
      ],
      [
        "u",
        "ck"
      ],
      [
        "˜",
        "‰"
      ],
      [
        "re",
        "l"
      ],
      [
        "at",
        "ed"
      ],
      [
        "me",
        "mber"
      ],
      [
        "st",
        "y"
      ],
      [
        "st",
        "ly"
      ],
      [
        "ow",
        "er"
      ],
      [
        "ke",
        "t"
      ],
      [
        "he",
        "llo"
      ],
      [
        "we",
        "ather"
      ],
      [
        "ac",
        "e"
      ],
      [
        "are",
        "a"
      ],
      [
        "some",
        "one"
      ],
      [
        "tr",
        "ue"
      ],
      [
        "pre",
        "ss"
      ],
      [
        "lot",
        "s"
      ],
      [
        "fun",
        "ny"
      ],
      [
        "ul",
        "t"
      ],
      [
        "qu",
        "ite"
      ],
      [
        "gr",
        "oup"
      ],
      [
        "watch",
        "ed"
      ],
      [
        "year",
        "s"
      ],
      [
        "fin",
        "ish"
      ],
      [
        "sc",
        "ary"
      ],
      [
        "ap",
        "an"
      ],
      [
        "ten",
        "nis"
      ],
      [
        "thanks",
        "giving"
      ],
      [
        "tre",
        "me"
      ],
      [
        "meet",
        "ing"
      ],
      [
        "aw",
        "esome"
      ],
      [
        "bu",
        "y"
      ],
      [
        "mar",
        "ath"
      ],
      [
        "Ch",
        "ristmas"
      ],
      [
        "tur",
        "key"
      ],
      [
        "cli",
        "mb"
      ],
      [
        "men",
        "tor"
      ],
      [
        "dr",
        "ink"
      ],
      [
        "vol",
        "unte"
      ],
      [
        "peci",
        "ally"
      ],
      [
        "May",
        "be"
      ],
      [
        "Wh",
        "en"
      ],
      [
        "under",
        "stand"
      ],
      [
        "ount",
        "ain"
      ],
      [
        "B",
        "e"
      ],
      [
        "C",
        "an"
      ],
      [
        "D",
        "is"
      ],
      [
        "G",
        "o"
      ],
      [
        "J",
        "apan"
      ],
      [
        "M",
        "e"
      ],
      [
        "S",
        "an"
      ],
      [
        "W",
        "ho"
      ],
      [
        "W",
        "ould"
      ],
      [
        "W",
        "hich"
      ],
      [
        "b",
        "ing"
      ],
      [
        "b",
        "al"
      ],
      [
        "b",
        "er"
      ],
      [
        "b",
        "ar"
      ],
      [
        "b",
        "rain"
      ],
      [
        "c",
        "er"
      ],
      [
        "c",
        "ar"
      ],
      [
        "c",
        "ro"
      ],
      [
        "d",
        "ing"
      ],
      [
        "d",
        "ish"
      ],
      [
        "e",
        "as"
      ],
      [
        "f",
        "li"
      ],
      [
        "f",
        "ight"
      ],
      [
        "g",
        "s"
      ],
      [
        "g",
        "en"
      ],
      [
        "h",
        "or"
      ],
      [
        "h",
        "and"
      ],
      [
        "i",
        "re"
      ],
      [
        "i",
        "ld"
      ],
      [
        "i",
        "que"
      ],
      [
        "k",
        "ach"
      ],
      [
        "l",
        "es"
      ],
      [
        "m",
        "in"
      ],
      [
        "m",
        "at"
      ],
      [
        "m",
        "it"
      ],
      [
        "m",
        "ust"
      ],
      [
        "m",
        "ate"
      ],
      [
        "n",
        "or"
      ],
      [
        "o",
        "p"
      ],
      [
        "p",
        "es"
      ],
      [
        "r",
        "ing"
      ],
      [
        "s",
        "ou"
      ],
      [
        "s",
        "ing"
      ],
      [
        "s",
        "we"
      ],
      [
        "s",
        "un"
      ],
      [
        "s",
        "ad"
      ],
      [
        "s",
        "uch"
      ],
      [
        "t",
        "ough"
      ],
      [
        "v",
        "ide"
      ],
      [
        "w",
        "ar"
      ],
      [
        "w",
        "ish"
      ],
      [
        "w",
        "inter"
      ],
      [
        "re",
        "member"
      ],
      [
        "to",
        "ge"
      ],
      [
        "ve",
        "nt"
      ],
      [
        "me",
        "t"
      ],
      [
        "ar",
        "k"
      ],
      [
        "es",
        "e"
      ],
      [
        "ch",
        "at"
      ],
      [
        "be",
        "ach"
      ],
      [
        "he",
        "ad"
      ],
      [
        "ll",
        "ing"
      ],
      [
        "et",
        "c"
      ],
      [
        "fe",
        "ct"
      ],
      [
        "..",
        ".."
      ],
      [
        "tr",
        "ain"
      ],
      [
        "Do",
        "es"
      ],
      [
        "de",
        "li"
      ],
      [
        "us",
        "ually"
      ],
      [
        "ex",
        "treme"
      ],
      [
        "He",
        "he"
      ],
      [
        "sp",
        "ort"
      ],
      [
        "ul",
        "ar"
      ],
      [
        "jo",
        "in"
      ],
      [
        "con",
        "ference"
      ],
      [
        "im",
        "ag"
      ],
      [
        "po",
        "se"
      ],
      [
        "af",
        "ra"
      ],
      [
        "gr",
        "ad"
      ],
      [
        "ation",
        "s"
      ],
      [
        "gi",
        "ve"
      ],
      [
        "watch",
        "ing"
      ],
      [
        "So",
        "me"
      ],
      [
        "game",
        "s"
      ],
      [
        "ag",
        "ain"
      ],
      [
        "eat",
        "ing"
      ],
      [
        "start",
        "ed"
      ],
      [
        "ok",
        "ay"
      ],
      [
        "pi",
        "kach"
      ],
      [
        "fl",
        "ower"
      ],
      [
        "won",
        "der"
      ],
      [
        "lear",
        "n"
      ],
      [
        "ski",
        "ing"
      ],
      [
        "dep",
        "ends"
      ],
      [
        "ail",
        "s"
      ],
      [
        "recent",
        "ly"
      ],
      [
        "col",
        "le"
      ],
      [
        "fig",
        "ure"
      ],
      [
        "ste",
        "ad"
      ],
      [
        "sty",
        "le"
      ],
      [
        "Dis",
        "ney"
      ],
      [
        "bal",
        "ance"
      ],
      [
        "swe",
        "et"
      ],
      [
        "toge",
        "ther"
      ],
      [
        "afra",
        "id"
      ],
      [
        "pikach",
        "u"
      ],
      [
        "A",
        "ll"
      ],
      [
        "A",
        "ust"
      ],
      [
        "D",
        "e"
      ],
      [
        "E",
        "x"
      ],
      [
        "F",
        "r"
      ],
      [
        "F",
        "or"
      ],
      [
        "H",
        "un"
      ],
      [
        "M",
        "o"
      ],
      [
        "N",
        "ow"
      ],
      [
        "P",
        "o"
      ],
      [
        "P",
        "re"
      ],
      [
        "S",
        "ame"
      ],
      [
        "S",
        "orry"
      ],
      [
        "U",
        "S"
      ],
      [
        "a",
        "x"
      ],
      [
        "a",
        "ut"
      ],
      [
        "a",
        "pp"
      ],
      [
        "b",
        "or"
      ],
      [
        "c",
        "all"
      ],
      [
        "e",
        "e"
      ],
      [
        "e",
        "m"
      ],
      [
        "f",
        "r"
      ],
      [
        "h",
        "uman"
      ],
      [
        "h",
        "is"
      ],
      [
        "i",
        "i"
      ],
      [
        "i",
        "o"
      ],
      [
        "i",
        "ous"
      ],
      [
        "k",
        "id"
      ],
      [
        "l",
        "an"
      ],
      [
        "m",
        "all"
      ],
      [
        "m",
        "one"
      ],
      [
        "m",
        "ountain"
      ],
      [
        "n",
        "et"
      ],
      [
        "p",
        "t"
      ],
      [
        "p",
        "ot"
      ],
      [
        "p",
        "ho"
      ],
      [
        "p",
        "ain"
      ],
      [
        "r",
        "ali"
      ],
      [
        "s",
        "w"
      ],
      [
        "s",
        "er"
      ],
      [
        "s",
        "id"
      ],
      [
        "s",
        "ound"
      ],
      [
        "v",
        "ac"
      ],
      [
        "v",
        "ir"
      ],
      [
        "z",
        "e"
      ],
      [
        "at",
        "ur"
      ],
      [
        "at",
        "ive"
      ],
      [
        "to",
        "p"
      ],
      [
        "ve",
        "l"
      ],
      [
        "or",
        "g"
      ],
      [
        "me",
        "l"
      ],
      [
        "me",
        "ss"
      ],
      [
        "es",
        "pecially"
      ],
      [
        "ch",
        "ill"
      ],
      [
        "be",
        "aut"
      ],
      [
        "so",
        "l"
      ],
      [
        "he",
        "d"
      ],
      [
        "ll",
        "ow"
      ],
      [
        "out",
        "side"
      ],
      [
        "are",
        "ntly"
      ],
      [
        "ri",
        "es"
      ],
      [
        "ad",
        "v"
      ],
      [
        "ti",
        "red"
      ],
      [
        "go",
        "es"
      ],
      [
        "ro",
        "ll"
      ],
      [
        "wor",
        "d"
      ],
      [
        "end",
        "ing"
      ],
      [
        "was",
        "n"
      ],
      [
        "pre",
        "pare"
      ],
      [
        "if",
        "ul"
      ],
      [
        "ast",
        "er"
      ],
      [
        "ure",
        "s"
      ],
      [
        "gre",
        "w"
      ],
      [
        "com",
        "p"
      ],
      [
        "ci",
        "ous"
      ],
      [
        "see",
        "ms"
      ],
      [
        "con",
        "vers"
      ],
      [
        "fav",
        "our"
      ],
      [
        "kind",
        "s"
      ],
      [
        "late",
        "ly"
      ],
      [
        "sc",
        "are"
      ],
      [
        "look",
        "s"
      ],
      [
        "ful",
        "ly"
      ],
      [
        "bo",
        "th"
      ],
      [
        "di",
        "st"
      ],
      [
        "su",
        "g"
      ],
      [
        "happ",
        "y"
      ],
      [
        "cr",
        "ab"
      ],
      [
        "excit",
        "ing"
      ],
      [
        "mor",
        "ning"
      ],
      [
        "Al",
        "so"
      ],
      [
        "ba",
        "sed"
      ],
      [
        "clo",
        "se"
      ],
      [
        "dis",
        "cus"
      ],
      [
        "mus",
        "ic"
      ],
      [
        "phy",
        "s"
      ],
      [
        "sen",
        "se"
      ],
      [
        "cour",
        "se"
      ],
      [
        "Ok",
        "ay"
      ],
      [
        "din",
        "ner"
      ],
      [
        "sho",
        "pping"
      ],
      [
        "rel",
        "ax"
      ],
      [
        "volunte",
        "er"
      ],
      [
        "war",
        "m"
      ],
      [
        "deli",
        "cious"
      ],
      [
        "Aust",
        "rali"
      ],
      [
        "Pre",
        "tty"
      ],
      [
        "mone",
        "y"
      ],
      [
        "beaut",
        "iful"
      ],
      [
        "favour",
        "ite"
      ],
      [
        "Australi",
        "a"
      ],
      [
        ")",
        "."
      ],
      [
        "2",
        "4"
      ],
      [
        "A",
        "d"
      ],
      [
        "A",
        "v"
      ],
      [
        "E",
        "very"
      ],
      [
        "G",
        "er"
      ],
      [
        "I",
        "â"
      ],
      [
        "P",
        "ro"
      ],
      [
        "R",
        "e"
      ],
      [
        "R",
        "ight"
      ],
      [
        "T",
        "ur"
      ],
      [
        "V",
        "i"
      ],
      [
        "W",
        "as"
      ],
      [
        "a",
        "i"
      ],
      [
        "a",
        "id"
      ],
      [
        "a",
        "ur"
      ],
      [
        "b",
        "st"
      ],
      [
        "b",
        "es"
      ],
      [
        "b",
        "as"
      ],
      [
        "c",
        "y"
      ],
      [
        "c",
        "ur"
      ],
      [
        "c",
        "ute"
      ],
      [
        "d",
        "ark"
      ],
      [
        "e",
        "le"
      ],
      [
        "f",
        "ast"
      ],
      [
        "f",
        "ound"
      ],
      [
        "f",
        "ull"
      ],
      [
        "g",
        "er"
      ],
      [
        "g",
        "one"
      ],
      [
        "h",
        "al"
      ],
      [
        "h",
        "un"
      ],
      [
        "h",
        "one"
      ],
      [
        "h",
        "our"
      ],
      [
        "i",
        "p"
      ],
      [
        "i",
        "ble"
      ],
      [
        "k",
        "k"
      ],
      [
        "l",
        "ing"
      ],
      [
        "l",
        "uck"
      ],
      [
        "m",
        "atch"
      ],
      [
        "m",
        "into"
      ],
      [
        "m",
        "ix"
      ],
      [
        "n",
        "n"
      ],
      [
        "n",
        "s"
      ],
      [
        "n",
        "ood"
      ],
      [
        "n",
        "am"
      ],
      [
        "p",
        "hi"
      ],
      [
        "p",
        "ong"
      ],
      [
        "p",
        "ap"
      ],
      [
        "r",
        "amen"
      ],
      [
        "s",
        "y"
      ],
      [
        "s",
        "in"
      ],
      [
        "s",
        "of"
      ],
      [
        "s",
        "ent"
      ],
      [
        "s",
        "ess"
      ],
      [
        "s",
        "har"
      ],
      [
        "s",
        "orry"
      ],
      [
        "t",
        "al"
      ],
      [
        "t",
        "wi"
      ],
      [
        "t",
        "aking"
      ],
      [
        "t",
        "wo"
      ],
      [
        "v",
        "al"
      ],
      [
        "w",
        "n"
      ],
      [
        "w",
        "an"
      ],
      [
        "w",
        "hi"
      ],
      [
        "y",
        "ay"
      ],
      [
        "um",
        "p"
      ],
      [
        "in",
        "side"
      ],
      [
        "in",
        "stead"
      ],
      [
        "at",
        "ing"
      ],
      [
        "at",
        "ar"
      ],
      [
        "at",
        "tend"
      ],
      [
        "to",
        "wn"
      ],
      [
        "ve",
        "d"
      ],
      [
        "it",
        "ch"
      ],
      [
        "or",
        "d"
      ],
      [
        "al",
        "most"
      ],
      [
        "en",
        "g"
      ],
      [
        "en",
        "s"
      ],
      [
        "ar",
        "ter"
      ],
      [
        "ch",
        "ance"
      ],
      [
        "ch",
        "ristmas"
      ],
      [
        "li",
        "ght"
      ],
      [
        "of",
        "fe"
      ],
      [
        "as",
        "ure"
      ],
      [
        "le",
        "t"
      ],
      [
        "le",
        "ast"
      ],
      [
        "ot",
        "e"
      ],
      [
        "ic",
        "s"
      ],
      [
        "ic",
        "y"
      ],
      [
        "we",
        "en"
      ],
      [
        "we",
        "ir"
      ],
      [
        "ac",
        "ti"
      ],
      [
        "ac",
        "tor"
      ],
      [
        "un",
        "ti"
      ],
      [
        "ad",
        "vent"
      ],
      [
        "some",
        "day"
      ],
      [
        "te",
        "m"
      ],
      [
        "te",
        "ch"
      ],
      [
        "te",
        "ll"
      ],
      [
        "hi",
        "p"
      ],
      [
        "de",
        "c"
      ],
      [
        "ex",
        "pl"
      ],
      [
        "ex",
        "ce"
      ],
      [
        "ent",
        "s"
      ],
      [
        "Ha",
        "wa"
      ],
      [
        "would",
        "n"
      ],
      [
        "sp",
        "oil"
      ],
      [
        "wee",
        "ks"
      ],
      [
        "ge",
        "st"
      ],
      [
        "com",
        "put"
      ],
      [
        "ear",
        "ly"
      ],
      [
        "jo",
        "b"
      ],
      [
        "see",
        "ing"
      ],
      [
        "no",
        "on"
      ],
      [
        "im",
        "press"
      ],
      [
        "pro",
        "gre"
      ],
      [
        "pro",
        "gr"
      ],
      [
        "gr",
        "ound"
      ],
      [
        "ca",
        "fe"
      ],
      [
        "want",
        "ed"
      ],
      [
        "bet",
        "ween"
      ],
      [
        "meet",
        "ings"
      ],
      [
        "does",
        "n"
      ],
      [
        "bad",
        "minto"
      ],
      [
        "person",
        "al"
      ],
      [
        "visit",
        "ed"
      ],
      [
        "az",
        "z"
      ],
      [
        "bab",
        "y"
      ],
      [
        "pi",
        "e"
      ],
      [
        "fl",
        "av"
      ],
      [
        "than",
        "k"
      ],
      [
        "sur",
        "vi"
      ],
      [
        "sur",
        "pr"
      ],
      [
        "wr",
        "ite"
      ],
      [
        "event",
        "s"
      ],
      [
        "sleep",
        "ing"
      ],
      [
        "excit",
        "ed"
      ],
      [
        "project",
        "s"
      ],
      [
        "happen",
        "ed"
      ],
      [
        "health",
        "y"
      ],
      [
        "sci",
        "ence"
      ],
      [
        "iss",
        "ants"
      ],
      [
        "dri",
        "ve"
      ],
      [
        "tast",
        "e"
      ],
      [
        "Go",
        "ing"
      ],
      [
        "cro",
        "issants"
      ],
      [
        "eas",
        "y"
      ],
      [
        "fli",
        "x"
      ],
      [
        "gen",
        "er"
      ],
      [
        "hor",
        "se"
      ],
      [
        "colle",
        "ge"
      ],
      [
        "pho",
        "to"
      ],
      [
        "org",
        "ani"
      ],
      [
        "phys",
        "ical"
      ],
      [
        "Av",
        "atar"
      ],
      [
        "Tur",
        "key"
      ],
      [
        "sin",
        "ce"
      ],
      [
        "whi",
        "le"
      ],
      [
        "offe",
        "e"
      ],
      [
        "unti",
        "l"
      ],
      [
        "Hawa",
        "ii"
      ],
      [
        "impress",
        "ive"
      ],
      [
        "progr",
        "am"
      ],
      [
        "badminto",
        "n"
      ],
      [
        "-",
        "-"
      ],
      [
        "A",
        "I"
      ],
      [
        "A",
        "t"
      ],
      [
        "A",
        "w"
      ],
      [
        "A",
        "nd"
      ],
      [
        "A",
        "pp"
      ],
      [
        "A",
        "ct"
      ],
      [
        "G",
        "ame"
      ],
      [
        "I",
        "nd"
      ],
      [
        "L",
        "I"
      ],
      [
        "O",
        "r"
      ],
      [
        "P",
        "er"
      ],
      [
        "P",
        "ar"
      ],
      [
        "R",
        "amen"
      ],
      [
        "S",
        "ci"
      ],
      [
        "T",
        "V"
      ],
      [
        "T",
        "ar"
      ],
      [
        "Y",
        "ea"
      ],
      [
        "a",
        "way"
      ],
      [
        "b",
        "l"
      ],
      [
        "b",
        "ur"
      ],
      [
        "b",
        "ake"
      ],
      [
        "c",
        "um"
      ],
      [
        "c",
        "ha"
      ],
      [
        "c",
        "es"
      ],
      [
        "c",
        "ri"
      ],
      [
        "c",
        "tr"
      ],
      [
        "c",
        "ame"
      ],
      [
        "c",
        "ks"
      ],
      [
        "c",
        "ake"
      ],
      [
        "c",
        "ess"
      ],
      [
        "c",
        "cer"
      ],
      [
        "c",
        "offee"
      ],
      [
        "d",
        "a"
      ],
      [
        "d",
        "en"
      ],
      [
        "d",
        "et"
      ],
      [
        "d",
        "un"
      ],
      [
        "d",
        "anger"
      ],
      [
        "e",
        "f"
      ],
      [
        "e",
        "w"
      ],
      [
        "f",
        "ut"
      ],
      [
        "f",
        "act"
      ],
      [
        "f",
        "ill"
      ],
      [
        "h",
        "um"
      ],
      [
        "h",
        "it"
      ],
      [
        "h",
        "ang"
      ],
      [
        "h",
        "mm"
      ],
      [
        "i",
        "ther"
      ],
      [
        "m",
        "ach"
      ],
      [
        "n",
        "ch"
      ],
      [
        "n",
        "ess"
      ],
      [
        "n",
        "ature"
      ],
      [
        "p",
        "u"
      ],
      [
        "p",
        "ri"
      ],
      [
        "p",
        "ur"
      ],
      [
        "r",
        "ow"
      ],
      [
        "r",
        "and"
      ],
      [
        "r",
        "out"
      ],
      [
        "s",
        "pe"
      ],
      [
        "s",
        "ig"
      ],
      [
        "s",
        "ight"
      ],
      [
        "s",
        "tor"
      ],
      [
        "s",
        "peci"
      ],
      [
        "s",
        "aid"
      ],
      [
        "t",
        "ain"
      ],
      [
        "t",
        "ack"
      ],
      [
        "u",
        "al"
      ],
      [
        "u",
        "ro"
      ],
      [
        "v",
        "a"
      ],
      [
        "v",
        "it"
      ],
      [
        "v",
        "ity"
      ],
      [
        "w",
        "all"
      ],
      [
        "w",
        "alk"
      ],
      [
        "w",
        "ise"
      ],
      [
        "y",
        "um"
      ],
      [
        "y",
        "up"
      ],
      [
        "z",
        "ed"
      ],
      [
        "z",
        "ation"
      ],
      [
        "˜",
        "‚"
      ],
      [
        "˜",
        "›"
      ],
      [
        "an",
        "sw"
      ],
      [
        "in",
        "vol"
      ],
      [
        "in",
        "ese"
      ],
      [
        "ou",
        "d"
      ],
      [
        "re",
        "f"
      ],
      [
        "re",
        "sp"
      ],
      [
        "at",
        "i"
      ],
      [
        "at",
        "es"
      ],
      [
        "to",
        "pic"
      ],
      [
        "to",
        "mor"
      ],
      [
        "you",
        "tu"
      ],
      [
        "it",
        "â"
      ],
      [
        "it",
        "self"
      ],
      [
        "on",
        "es"
      ],
      [
        "or",
        "y"
      ],
      [
        "or",
        "ies"
      ],
      [
        "st",
        "re"
      ],
      [
        "al",
        "e"
      ],
      [
        "en",
        "ti"
      ],
      [
        "ar",
        "ian"
      ],
      [
        "oo",
        "h"
      ],
      [
        "ch",
        "all"
      ],
      [
        "ch",
        "ange"
      ],
      [
        "ch",
        "ord"
      ],
      [
        "li",
        "f"
      ],
      [
        "li",
        "st"
      ],
      [
        "li",
        "er"
      ],
      [
        "li",
        "ving"
      ],
      [
        "se",
        "con"
      ],
      [
        "ke",
        "mon"
      ],
      [
        "so",
        "ccer"
      ],
      [
        "le",
        "ad"
      ],
      [
        "ic",
        "ally"
      ],
      [
        "do",
        "ors"
      ],
      [
        "that",
        "s"
      ],
      [
        "for",
        "got"
      ],
      [
        "out",
        "look"
      ],
      [
        "ed",
        "u"
      ],
      [
        "un",
        "ique"
      ],
      [
        "wi",
        "ld"
      ],
      [
        "like",
        "d"
      ],
      [
        "ad",
        "d"
      ],
      [
        "ti",
        "ring"
      ],
      [
        "co",
        "de"
      ],
      [
        "co",
        "aster"
      ],
      [
        "mo",
        "on"
      ],
      [
        "mo",
        "ment"
      ],
      [
        "your",
        "s"
      ],
      [
        "am",
        "ple"
      ],
      [
        "ea",
        "ch"
      ],
      [
        "lo",
        "p"
      ],
      [
        "lo",
        "cal"
      ],
      [
        "lo",
        "gy"
      ],
      [
        "ne",
        "ar"
      ],
      [
        "te",
        "st"
      ],
      [
        "ty",
        "pes"
      ],
      [
        "can",
        "not"
      ],
      [
        "ter",
        "s"
      ],
      [
        "ter",
        "y"
      ],
      [
        "if",
        "i"
      ],
      [
        "too",
        "k"
      ],
      [
        "de",
        "cor"
      ],
      [
        "ex",
        "ample"
      ],
      [
        "fun",
        "d"
      ],
      [
        "sp",
        "ir"
      ],
      [
        "sp",
        "ace"
      ],
      [
        "sp",
        "icy"
      ],
      [
        "qu",
        "i"
      ],
      [
        "qu",
        "et"
      ],
      [
        "qu",
        "arter"
      ],
      [
        "ear",
        "lier"
      ],
      [
        "ci",
        "ate"
      ],
      [
        "see",
        "m"
      ],
      [
        "no",
        "pe"
      ],
      [
        "no",
        "thing"
      ],
      [
        "con",
        "sid"
      ],
      [
        "pro",
        "ble"
      ],
      [
        "po",
        "sit"
      ],
      [
        "po",
        "int"
      ],
      [
        "That",
        "s"
      ],
      [
        "af",
        "fic"
      ],
      [
        "fo",
        "llow"
      ],
      [
        "ct",
        "ed"
      ],
      [
        "food",
        "s"
      ],
      [
        "rest",
        "aur"
      ],
      [
        "gu",
        "il"
      ],
      [
        "pr",
        "of"
      ],
      [
        "enjoy",
        "ing"
      ],
      [
        "late",
        "st"
      ],
      [
        "sc",
        "en"
      ],
      [
        "No",
        "thing"
      ],
      [
        "every",
        "one"
      ],
      [
        "!!",
        "!"
      ],
      [
        "part",
        "ic"
      ],
      [
        "Ne",
        "ver"
      ],
      [
        "Ne",
        "ur"
      ],
      [
        "bo",
        "y"
      ],
      [
        "bo",
        "ard"
      ],
      [
        "di",
        "a"
      ],
      [
        "di",
        "ving"
      ],
      [
        "lit",
        "er"
      ],
      [
        "su",
        "cks"
      ],
      [
        "bu",
        "ild"
      ],
      [
        "bot",
        "s"
      ],
      [
        "cook",
        "ing"
      ],
      [
        "cook",
        "ies"
      ],
      [
        "after",
        "noon"
      ],
      [
        "ps",
        "y"
      ],
      [
        "trave",
        "lling"
      ],
      [
        "Ch",
        "inese"
      ],
      [
        "tur",
        "ns"
      ],
      [
        "mean",
        "s"
      ],
      [
        "come",
        "s"
      ],
      [
        "tu",
        "al"
      ],
      [
        "tu",
        "bing"
      ],
      [
        "lear",
        "ning"
      ],
      [
        "br",
        "ing"
      ],
      [
        "sto",
        "re"
      ],
      [
        "wr",
        "it"
      ],
      [
        "off",
        "ice"
      ],
      [
        "rac",
        "quet"
      ],
      [
        "gy",
        "m"
      ],
      [
        "par",
        "ty"
      ],
      [
        "anc",
        "es"
      ],
      [
        "real",
        "ity"
      ],
      [
        "gl",
        "ad"
      ],
      [
        "sha",
        "re"
      ],
      [
        "marath",
        "on"
      ],
      [
        "marath",
        "ons"
      ],
      [
        "climb",
        "ing"
      ],
      [
        "fight",
        "ing"
      ],
      [
        "nor",
        "m"
      ],
      [
        "vide",
        "o"
      ],
      [
        "train",
        "ing"
      ],
      [
        "imag",
        "in"
      ],
      [
        "Hun",
        "an"
      ],
      [
        "Po",
        "kemon"
      ],
      [
        "vac",
        "ation"
      ],
      [
        "vir",
        "tual"
      ],
      [
        "atur",
        "day"
      ],
      [
        "mess",
        "age"
      ],
      [
        "prepare",
        "d"
      ],
      [
        "convers",
        "ation"
      ],
      [
        "scare",
        "d"
      ],
      [
        "discus",
        "s"
      ],
      [
        "relax",
        "ing"
      ],
      [
        "Ad",
        "mit"
      ],
      [
        "Ger",
        "many"
      ],
      [
        "bes",
        "ide"
      ],
      [
        "cy",
        "cle"
      ],
      [
        "ele",
        "ctr"
      ],
      [
        "hal",
        "f"
      ],
      [
        "nood",
        "le"
      ],
      [
        "sy",
        "n"
      ],
      [
        "sess",
        "ions"
      ],
      [
        "shar",
        "ing"
      ],
      [
        "weir",
        "d"
      ],
      [
        "progre",
        "ss"
      ],
      [
        "Aw",
        "esome"
      ],
      [
        "App",
        "arently"
      ],
      [
        "Act",
        "ually"
      ],
      [
        "Ind",
        "ia"
      ],
      [
        "Sci",
        "ence"
      ],
      [
        "Tar",
        "get"
      ],
      [
        "danger",
        "ous"
      ],
      [
        "stor",
        "m"
      ],
      [
        "speci",
        "al"
      ],
      [
        "uro",
        "pe"
      ],
      [
        "answ",
        "er"
      ],
      [
        "tomor",
        "row"
      ],
      [
        "youtu",
        "be"
      ],
      [
        "secon",
        "d"
      ],
      [
        "consid",
        "er"
      ],
      [
        "!",
        "?"
      ],
      [
        ".",
        "\""
      ],
      [
        ".",
        ","
      ],
      [
        "2",
        "0"
      ],
      [
        ">",
        "?"
      ],
      [
        "A",
        "ven"
      ],
      [
        "B",
        "y"
      ],
      [
        "C",
        "o"
      ],
      [
        "D",
        "on"
      ],
      [
        "F",
        "am"
      ],
      [
        "G",
        "et"
      ],
      [
        "H",
        "one"
      ],
      [
        "I",
        "nt"
      ],
      [
        "J",
        "azz"
      ],
      [
        "K",
        "ing"
      ],
      [
        "L",
        "A"
      ],
      [
        "L",
        "ot"
      ],
      [
        "L",
        "ook"
      ],
      [
        "M",
        "or"
      ],
      [
        "M",
        "ar"
      ],
      [
        "M",
        "ate"
      ],
      [
        "N",
        "K"
      ],
      [
        "O",
        "ly"
      ],
      [
        "P",
        "e"
      ],
      [
        "R",
        "I"
      ],
      [
        "S",
        "p"
      ],
      [
        "S",
        "t"
      ],
      [
        "S",
        "te"
      ],
      [
        "S",
        "app"
      ],
      [
        "S",
        "ee"
      ],
      [
        "S",
        "aturday"
      ],
      [
        "T",
        "ry"
      ],
      [
        "T",
        "ok"
      ],
      [
        "U",
        "g"
      ],
      [
        "W",
        "o"
      ],
      [
        "W",
        "ar"
      ],
      [
        "Y",
        "o"
      ],
      [
        "Y",
        "ep"
      ],
      [
        "a",
        "gre"
      ],
      [
        "a",
        "ir"
      ],
      [
        "b",
        "ay"
      ],
      [
        "b",
        "unch"
      ],
      [
        "c",
        "as"
      ],
      [
        "c",
        "ti"
      ],
      [
        "c",
        "if"
      ],
      [
        "c",
        "ard"
      ],
      [
        "c",
        "har"
      ],
      [
        "c",
        "ise"
      ],
      [
        "c",
        "ult"
      ],
      [
        "d",
        "ry"
      ],
      [
        "d",
        "ies"
      ],
      [
        "e",
        "g"
      ],
      [
        "e",
        "rest"
      ],
      [
        "f",
        "i"
      ],
      [
        "f",
        "ly"
      ],
      [
        "f",
        "all"
      ],
      [
        "f",
        "ant"
      ],
      [
        "f",
        "ake"
      ],
      [
        "f",
        "ry"
      ],
      [
        "g",
        "a"
      ],
      [
        "g",
        "le"
      ],
      [
        "g",
        "ers"
      ],
      [
        "g",
        "ave"
      ],
      [
        "g",
        "ular"
      ],
      [
        "h",
        "ou"
      ],
      [
        "i",
        "e"
      ],
      [
        "i",
        "um"
      ],
      [
        "i",
        "st"
      ],
      [
        "i",
        "al"
      ],
      [
        "i",
        "gh"
      ],
      [
        "i",
        "pl"
      ],
      [
        "j",
        "a"
      ],
      [
        "k",
        "in"
      ],
      [
        "k",
        "ing"
      ],
      [
        "k",
        "ale"
      ],
      [
        "l",
        "ar"
      ],
      [
        "l",
        "ow"
      ],
      [
        "l",
        "ks"
      ],
      [
        "l",
        "ine"
      ],
      [
        "m",
        "is"
      ],
      [
        "m",
        "ain"
      ],
      [
        "m",
        "il"
      ],
      [
        "m",
        "aking"
      ],
      [
        "m",
        "iss"
      ],
      [
        "n",
        "um"
      ],
      [
        "n",
        "on"
      ],
      [
        "n",
        "es"
      ],
      [
        "n",
        "as"
      ],
      [
        "n",
        "ers"
      ],
      [
        "o",
        "re"
      ],
      [
        "o",
        "pp"
      ],
      [
        "o",
        "bst"
      ],
      [
        "p",
        "ha"
      ],
      [
        "p",
        "ac"
      ],
      [
        "p",
        "ass"
      ],
      [
        "p",
        "tion"
      ],
      [
        "p",
        "ull"
      ],
      [
        "p",
        "ump"
      ],
      [
        "r",
        "u"
      ],
      [
        "r",
        "is"
      ],
      [
        "r",
        "oo"
      ],
      [
        "r",
        "ones"
      ],
      [
        "s",
        "i"
      ],
      [
        "s",
        "um"
      ],
      [
        "s",
        "on"
      ],
      [
        "s",
        "he"
      ],
      [
        "s",
        "wi"
      ],
      [
        "s",
        "qu"
      ],
      [
        "s",
        "ong"
      ],
      [
        "s",
        "im"
      ],
      [
        "s",
        "oup"
      ],
      [
        "s",
        "mall"
      ],
      [
        "s",
        "hip"
      ],
      [
        "t",
        "w"
      ],
      [
        "t",
        "in"
      ],
      [
        "t",
        "ac"
      ],
      [
        "t",
        "our"
      ],
      [
        "t",
        "akes"
      ],
      [
        "v",
        "s"
      ],
      [
        "v",
        "an"
      ],
      [
        "v",
        "ar"
      ],
      [
        "v",
        "ors"
      ],
      [
        "y",
        "ing"
      ],
      [
        "z",
        "ipl"
      ],
      [
        "an",
        "ish"
      ],
      [
        "ou",
        "ch"
      ],
      [
        "re",
        "am"
      ],
      [
        "re",
        "ntly"
      ],
      [
        "re",
        "qui"
      ],
      [
        "re",
        "gular"
      ],
      [
        "at",
        "s"
      ],
      [
        "ing",
        "ful"
      ],
      [
        "the",
        "ory"
      ],
      [
        "to",
        "m"
      ],
      [
        "it",
        "ar"
      ],
      [
        "it",
        "es"
      ],
      [
        "it",
        "ion"
      ],
      [
        "it",
        "ute"
      ],
      [
        "on",
        "se"
      ],
      [
        "or",
        "o"
      ],
      [
        "me",
        "al"
      ],
      [
        "me",
        "ant"
      ],
      [
        "st",
        "s"
      ],
      [
        "st",
        "ics"
      ],
      [
        "al",
        "s"
      ],
      [
        "al",
        "right"
      ],
      [
        "ha",
        "ps"
      ],
      [
        "en",
        "ty"
      ],
      [
        "is",
        "n"
      ],
      [
        "is",
        "ing"
      ],
      [
        "is",
        "co"
      ],
      [
        "er",
        "cise"
      ],
      [
        "ar",
        "ti"
      ],
      [
        "ar",
        "io"
      ],
      [
        "oo",
        "t"
      ],
      [
        "oo",
        "gle"
      ],
      [
        "ch",
        "i"
      ],
      [
        "ch",
        "an"
      ],
      [
        "ch",
        "ick"
      ],
      [
        "ch",
        "ang"
      ],
      [
        "li",
        "ons"
      ],
      [
        "se",
        "a"
      ],
      [
        "se",
        "ll"
      ],
      [
        "ke",
        "ts"
      ],
      [
        "le",
        "g"
      ],
      [
        "and",
        "a"
      ],
      [
        "hat",
        "e"
      ],
      [
        "ot",
        "ic"
      ],
      [
        "ic",
        "a"
      ],
      [
        "ic",
        "ity"
      ],
      [
        "ll",
        "ent"
      ],
      [
        "do",
        "gs"
      ],
      [
        "for",
        "m"
      ],
      [
        "for",
        "t"
      ],
      [
        "for",
        "get"
      ],
      [
        "we",
        "ight"
      ],
      [
        "ac",
        "les"
      ],
      [
        "et",
        "er"
      ],
      [
        "et",
        "nam"
      ],
      [
        "wi",
        "fe"
      ],
      [
        "pl",
        "enty"
      ],
      [
        "ti",
        "ons"
      ],
      [
        "ro",
        "ad"
      ],
      [
        "co",
        "ver"
      ],
      [
        "am",
        "bo"
      ],
      [
        "ho",
        "st"
      ],
      [
        "up",
        "coming"
      ],
      [
        "good",
        "ies"
      ],
      [
        "lo",
        "g"
      ],
      [
        "lo",
        "se"
      ],
      [
        "lo",
        "so"
      ],
      [
        "lo",
        "gi"
      ],
      [
        "tr",
        "affic"
      ],
      [
        "ice",
        "cream"
      ],
      [
        "ne",
        "at"
      ],
      [
        "nt",
        "s"
      ],
      [
        "any",
        "where"
      ],
      [
        "pre",
        "sent"
      ],
      [
        "pre",
        "ciate"
      ],
      [
        "te",
        "as"
      ],
      [
        "ty",
        "pic"
      ],
      [
        "hi",
        "ke"
      ],
      [
        "ter",
        "ri"
      ],
      [
        "if",
        "ier"
      ],
      [
        "ate",
        "ly"
      ],
      [
        "lot",
        "ion"
      ],
      [
        "ant",
        "a"
      ],
      [
        "us",
        "h"
      ],
      [
        "us",
        "ing"
      ],
      [
        "ex",
        "ercise"
      ],
      [
        "ex",
        "otic"
      ],
      [
        "ple",
        "te"
      ],
      [
        "gre",
        "en"
      ],
      [
        "act",
        "ly"
      ],
      [
        "sp",
        "ot"
      ],
      [
        "sp",
        "ea"
      ],
      [
        "sp",
        "ent"
      ],
      [
        "tty",
        "l"
      ],
      [
        "ul",
        "ting"
      ],
      [
        "av",
        "y"
      ],
      [
        "ge",
        "stion"
      ],
      [
        "com",
        "mon"
      ],
      [
        "com",
        "plete"
      ],
      [
        "ther",
        "n"
      ],
      [
        "con",
        "ne"
      ],
      [
        "use",
        "ful"
      ],
      [
        "ig",
        "ned"
      ],
      [
        "Th",
        "rones"
      ],
      [
        "po",
        "st"
      ],
      [
        "po",
        "ss"
      ],
      [
        "play",
        "ers"
      ],
      [
        "af",
        "fect"
      ],
      [
        "fo",
        "lks"
      ],
      [
        "gr",
        "y"
      ],
      [
        "wh",
        "ite"
      ],
      [
        "ca",
        "ve"
      ],
      [
        "gu",
        "age"
      ],
      [
        "gu",
        "itar"
      ],
      [
        "feel",
        "s"
      ],
      [
        "ill",
        "a"
      ],
      [
        "ill",
        "s"
      ],
      [
        "favor",
        "ites"
      ],
      [
        "fin",
        "e"
      ],
      [
        "enjoy",
        "ed"
      ],
      [
        "No",
        "pe"
      ],
      [
        "ap",
        "preciate"
      ],
      [
        "live",
        "d"
      ],
      [
        "live",
        "s"
      ],
      [
        "!!",
        "!!"
      ],
      [
        "part",
        "ner"
      ],
      [
        "REDACTED_",
        "LI"
      ],
      [
        "cl",
        "oud"
      ],
      [
        "per",
        "fect"
      ],
      [
        "fish",
        "ing"
      ],
      [
        "own",
        "er"
      ],
      [
        "cal",
        "ories"
      ],
      [
        "other",
        "s"
      ],
      [
        "ment",
        "al"
      ],
      [
        "ment",
        "ee"
      ],
      [
        "rain",
        "ing"
      ],
      [
        "sup",
        "pose"
      ],
      [
        "stu",
        "dy"
      ],
      [
        "bu",
        "g"
      ],
      [
        "hel",
        "ps"
      ],
      [
        "az",
        "y"
      ],
      [
        "fam",
        "ous"
      ],
      [
        "sk",
        "ills"
      ],
      [
        "mar",
        "k"
      ],
      [
        "mar",
        "ket"
      ],
      [
        "trave",
        "led"
      ],
      [
        "Ch",
        "ris"
      ],
      [
        "sch",
        "edu"
      ],
      [
        "tur",
        "ning"
      ],
      [
        "str",
        "ong"
      ],
      [
        "str",
        "ange"
      ],
      [
        "str",
        "anger"
      ],
      [
        "class",
        "es"
      ],
      [
        "class",
        "ifier"
      ],
      [
        "cr",
        "azy"
      ],
      [
        "cli",
        "mate"
      ],
      [
        "cli",
        "ents"
      ],
      [
        "exper",
        "t"
      ],
      [
        "res",
        "ort"
      ],
      [
        "che",
        "f"
      ],
      [
        "help",
        "ing"
      ],
      [
        "Tr",
        "ave"
      ],
      [
        "cit",
        "ies"
      ],
      [
        "stuff",
        "ing"
      ],
      [
        "could",
        "n"
      ],
      [
        "fic",
        "tion"
      ],
      [
        "fic",
        "ial"
      ],
      [
        "rac",
        "e"
      ],
      [
        "travel",
        "ing"
      ],
      [
        "anc",
        "isco"
      ],
      [
        "ani",
        "me"
      ],
      [
        "origin",
        "al"
      ],
      [
        "origin",
        "ally"
      ],
      [
        "As",
        "ian"
      ],
      [
        "des",
        "cri"
      ],
      [
        "fre",
        "e"
      ],
      [
        "fre",
        "sh"
      ],
      [
        "ph",
        "one"
      ],
      [
        "ping",
        "pong"
      ],
      [
        "pare",
        "nts"
      ],
      [
        "snow",
        "storm"
      ],
      [
        "keep",
        "ing"
      ],
      [
        "pop",
        "ular"
      ],
      [
        "count",
        "ing"
      ],
      [
        "Like",
        "wise"
      ],
      [
        "sha",
        "me"
      ],
      [
        "cer",
        "tain"
      ],
      [
        "op",
        "en"
      ],
      [
        "sou",
        "thern"
      ],
      [
        "vide",
        "os"
      ],
      [
        "grad",
        "u"
      ],
      [
        "wonder",
        "ful"
      ],
      [
        "Fr",
        "ancisco"
      ],
      [
        "Mo",
        "stly"
      ],
      [
        "bor",
        "n"
      ],
      [
        "em",
        "p"
      ],
      [
        "em",
        "ails"
      ],
      [
        "kid",
        "ding"
      ],
      [
        "lan",
        "guage"
      ],
      [
        "mountain",
        "s"
      ],
      [
        "net",
        "flix"
      ],
      [
        "mel",
        "ted"
      ],
      [
        "chill",
        "ing"
      ],
      [
        "sol",
        "ut"
      ],
      [
        "roll",
        "er"
      ],
      [
        "comp",
        "et"
      ],
      [
        "comp",
        "any"
      ],
      [
        "dist",
        "ance"
      ],
      [
        "dist",
        "ances"
      ],
      [
        "sug",
        "gestion"
      ],
      [
        "Pro",
        "bably"
      ],
      [
        "Vi",
        "etnam"
      ],
      [
        "hone",
        "st"
      ],
      [
        "hour",
        "s"
      ],
      [
        "phi",
        "loso"
      ],
      [
        "wan",
        "na"
      ],
      [
        "tech",
        "n"
      ],
      [
        "exce",
        "llent"
      ],
      [
        "comput",
        "ers"
      ],
      [
        "flav",
        "ors"
      ],
      [
        "survi",
        "vors"
      ],
      [
        "surpr",
        "ise"
      ],
      [
        "gener",
        "al"
      ],
      [
        "photo",
        "s"
      ],
      [
        "det",
        "ails"
      ],
      [
        "fut",
        "ure"
      ],
      [
        "mach",
        "ine"
      ],
      [
        "pur",
        "pose"
      ],
      [
        "rout",
        "es"
      ],
      [
        "spe",
        "cif"
      ],
      [
        "sig",
        "n"
      ],
      [
        "tack",
        "le"
      ],
      [
        "invol",
        "ves"
      ],
      [
        "resp",
        "onse"
      ],
      [
        "topic",
        "s"
      ],
      [
        "stre",
        "et"
      ],
      [
        "chall",
        "eng"
      ],
      [
        "spir",
        "it"
      ],
      [
        "proble",
        "m"
      ],
      [
        "posit",
        "ive"
      ],
      [
        "guil",
        "ty"
      ],
      [
        "prof",
        "ess"
      ],
      [
        "scen",
        "ario"
      ],
      [
        "partic",
        "ip"
      ],
      [
        "Neur",
        "al"
      ],
      [
        "liter",
        "ature"
      ],
      [
        "writ",
        "ing"
      ],
      [
        "racquet",
        "ball"
      ],
      [
        "electr",
        "icity"
      ],
      [
        "syn",
        "c"
      ],
      [
        "Fam",
        "ily"
      ],
      [
        "Hone",
        "stly"
      ],
      [
        "Int",
        "erest"
      ],
      [
        "Look",
        "ing"
      ],
      [
        "Mar",
        "vel"
      ],
      [
        "Mate",
        "o"
      ],
      [
        "Oly",
        "m"
      ],
      [
        "Pe",
        "ople"
      ],
      [
        "Sapp",
        "oro"
      ],
      [
        "Tok",
        "yo"
      ],
      [
        "Ug",
        "anda"
      ],
      [
        "Wo",
        "ah"
      ],
      [
        "agre",
        "e"
      ],
      [
        "cti",
        "ve"
      ],
      [
        "hou",
        "se"
      ],
      [
        "num",
        "ber"
      ],
      [
        "pump",
        "kin"
      ],
      [
        "sum",
        "mer"
      ],
      [
        "van",
        "illa"
      ],
      [
        "requi",
        "res"
      ],
      [
        "chick",
        "en"
      ],
      [
        "chang",
        "ed"
      ],
      [
        "ambo",
        "dia"
      ],
      [
        "poss",
        "ible"
      ],
      [
        "affect",
        "ed"
      ],
      [
        "REDACTED_LI",
        "NK"
      ],
      [
        "schedu",
        "le"
      ],
      [
        "descri",
        "ption"
      ],
      [
        "Interest",
        "ing"
      ],
      [
        "1",
        "0"
      ],
      [
        "3",
        "0"
      ],
      [
        "9",
        "9"
      ],
      [
        ">",
        ","
      ],
      [
        "?",
        "!?"
      ],
      [
        "A",
        "mer"
      ],
      [
        "A",
        "fr"
      ],
      [
        "B",
        "l"
      ],
      [
        "B",
        "u"
      ],
      [
        "B",
        "us"
      ],
      [
        "C",
        "or"
      ],
      [
        "C",
        "ho"
      ],
      [
        "C",
        "ali"
      ],
      [
        "C",
        "ru"
      ],
      [
        "C",
        "ambodia"
      ],
      [
        "D",
        "ep"
      ],
      [
        "E",
        "hh"
      ],
      [
        "E",
        "urope"
      ],
      [
        "F",
        "re"
      ],
      [
        "F",
        "ood"
      ],
      [
        "F",
        "ri"
      ],
      [
        "F",
        "ir"
      ],
      [
        "G",
        "ar"
      ],
      [
        "G",
        "rand"
      ],
      [
        "H",
        "y"
      ],
      [
        "H",
        "ok"
      ],
      [
        "K",
        "e"
      ],
      [
        "K",
        "ar"
      ],
      [
        "K",
        "ind"
      ],
      [
        "L",
        "ink"
      ],
      [
        "L",
        "ast"
      ],
      [
        "L",
        "ok"
      ],
      [
        "M",
        "L"
      ],
      [
        "M",
        "on"
      ],
      [
        "M",
        "and"
      ],
      [
        "M",
        "ex"
      ],
      [
        "M",
        "ine"
      ],
      [
        "M",
        "int"
      ],
      [
        "M",
        "au"
      ],
      [
        "M",
        "ountain"
      ],
      [
        "M",
        "RI"
      ],
      [
        "N",
        "et"
      ],
      [
        "O",
        "N"
      ],
      [
        "O",
        "oo"
      ],
      [
        "P",
        "l"
      ],
      [
        "P",
        "ho"
      ],
      [
        "P",
        "lan"
      ],
      [
        "S",
        "F"
      ],
      [
        "S",
        "e"
      ],
      [
        "S",
        "h"
      ],
      [
        "S",
        "w"
      ],
      [
        "S",
        "ur"
      ],
      [
        "S",
        "part"
      ],
      [
        "S",
        "anta"
      ],
      [
        "T",
        "a"
      ],
      [
        "T",
        "e"
      ],
      [
        "T",
        "u"
      ],
      [
        "T",
        "re"
      ],
      [
        "T",
        "er"
      ],
      [
        "T",
        "alk"
      ],
      [
        "T",
        "wo"
      ],
      [
        "T",
        "ai"
      ],
      [
        "U",
        "n"
      ],
      [
        "U",
        "nd"
      ],
      [
        "V",
        "u"
      ],
      [
        "V",
        "ER"
      ],
      [
        "W",
        "an"
      ],
      [
        "W",
        "ed"
      ],
      [
        "W",
        "ill"
      ],
      [
        "Y",
        "up"
      ],
      [
        "Y",
        "ear"
      ],
      [
        "a",
        "o"
      ],
      [
        "a",
        "do"
      ],
      [
        "a",
        "this"
      ],
      [
        "a",
        "im"
      ],
      [
        "a",
        "po"
      ],
      [
        "b",
        "b"
      ],
      [
        "b",
        "h"
      ],
      [
        "b",
        "s"
      ],
      [
        "b",
        "an"
      ],
      [
        "b",
        "en"
      ],
      [
        "b",
        "ro"
      ],
      [
        "b",
        "il"
      ],
      [
        "b",
        "ought"
      ],
      [
        "c",
        "u"
      ],
      [
        "c",
        "in"
      ],
      [
        "c",
        "ing"
      ],
      [
        "c",
        "ut"
      ],
      [
        "c",
        "id"
      ],
      [
        "c",
        "up"
      ],
      [
        "c",
        "any"
      ],
      [
        "c",
        "ir"
      ],
      [
        "c",
        "akes"
      ],
      [
        "c",
        "ket"
      ],
      [
        "d",
        "ou"
      ],
      [
        "d",
        "it"
      ],
      [
        "d",
        "ate"
      ],
      [
        "d",
        "ance"
      ],
      [
        "d",
        "anc"
      ],
      [
        "d",
        "ump"
      ],
      [
        "e",
        "co"
      ],
      [
        "e",
        "ither"
      ],
      [
        "e",
        "urope"
      ],
      [
        "f",
        "a"
      ],
      [
        "f",
        "ing"
      ],
      [
        "f",
        "it"
      ],
      [
        "f",
        "as"
      ],
      [
        "f",
        "et"
      ],
      [
        "f",
        "il"
      ],
      [
        "f",
        "fer"
      ],
      [
        "f",
        "ix"
      ],
      [
        "f",
        "oot"
      ],
      [
        "f",
        "MRI"
      ],
      [
        "g",
        "in"
      ],
      [
        "g",
        "ar"
      ],
      [
        "g",
        "ative"
      ],
      [
        "g",
        "oogle"
      ],
      [
        "h",
        "n"
      ],
      [
        "h",
        "u"
      ],
      [
        "h",
        "er"
      ],
      [
        "h",
        "ur"
      ],
      [
        "h",
        "int"
      ],
      [
        "i",
        "u"
      ],
      [
        "i",
        "ze"
      ],
      [
        "j",
        "it"
      ],
      [
        "j",
        "our"
      ],
      [
        "j",
        "azz"
      ],
      [
        "j",
        "iu"
      ],
      [
        "k",
        "l"
      ],
      [
        "k",
        "es"
      ],
      [
        "k",
        "pop"
      ],
      [
        "k",
        "ai"
      ],
      [
        "k",
        "itch"
      ],
      [
        "l",
        "or"
      ],
      [
        "l",
        "am"
      ],
      [
        "l",
        "aw"
      ],
      [
        "m",
        "ing"
      ],
      [
        "m",
        "oo"
      ],
      [
        "m",
        "and"
      ],
      [
        "m",
        "un"
      ],
      [
        "m",
        "ir"
      ],
      [
        "m",
        "ig"
      ],
      [
        "m",
        "ine"
      ],
      [
        "m",
        "ath"
      ],
      [
        "n",
        "g"
      ],
      [
        "n",
        "ut"
      ],
      [
        "n",
        "try"
      ],
      [
        "n",
        "ation"
      ],
      [
        "n",
        "ia"
      ],
      [
        "n",
        "atur"
      ],
      [
        "o",
        "c"
      ],
      [
        "o",
        "m"
      ],
      [
        "o",
        "id"
      ],
      [
        "o",
        "ce"
      ],
      [
        "o",
        "red"
      ],
      [
        "o",
        "ven"
      ],
      [
        "o",
        "dd"
      ],
      [
        "o",
        "des"
      ],
      [
        "p",
        "m"
      ],
      [
        "p",
        "ed"
      ],
      [
        "p",
        "et"
      ],
      [
        "p",
        "here"
      ],
      [
        "p",
        "ul"
      ],
      [
        "p",
        "ted"
      ],
      [
        "p",
        "ace"
      ],
      [
        "p",
        "ens"
      ],
      [
        "r",
        "s"
      ],
      [
        "r",
        "ot"
      ],
      [
        "r",
        "ad"
      ],
      [
        "r",
        "up"
      ],
      [
        "r",
        "af"
      ],
      [
        "r",
        "self"
      ],
      [
        "r",
        "ants"
      ],
      [
        "r",
        "ush"
      ],
      [
        "s",
        "li"
      ],
      [
        "s",
        "and"
      ],
      [
        "s",
        "end"
      ],
      [
        "s",
        "lo"
      ],
      [
        "s",
        "us"
      ],
      [
        "s",
        "ite"
      ],
      [
        "s",
        "av"
      ],
      [
        "s",
        "ive"
      ],
      [
        "s",
        "sed"
      ],
      [
        "s",
        "pecially"
      ],
      [
        "s",
        "nor"
      ],
      [
        "s",
        "moo"
      ],
      [
        "t",
        "it"
      ],
      [
        "t",
        "ic"
      ],
      [
        "t",
        "ent"
      ],
      [
        "t",
        "ask"
      ],
      [
        "t",
        "ouch"
      ],
      [
        "t",
        "bh"
      ],
      [
        "u",
        "c"
      ],
      [
        "u",
        "es"
      ],
      [
        "u",
        "rist"
      ],
      [
        "v",
        "ice"
      ],
      [
        "v",
        "ation"
      ],
      [
        "v",
        "oil"
      ],
      [
        "w",
        "ing"
      ],
      [
        "w",
        "it"
      ],
      [
        "w",
        "are"
      ],
      [
        "w",
        "ind"
      ],
      [
        "y",
        "s"
      ],
      [
        "y",
        "er"
      ],
      [
        "z",
        "z"
      ],
      [
        "˜",
        "€"
      ],
      [
        "€",
        "¦"
      ],
      [
        "an",
        "k"
      ],
      [
        "an",
        "ut"
      ],
      [
        "an",
        "other"
      ],
      [
        "th",
        "um"
      ],
      [
        "th",
        "us"
      ],
      [
        "in",
        "de"
      ],
      [
        "in",
        "dep"
      ],
      [
        "in",
        "vit"
      ],
      [
        "in",
        "doors"
      ],
      [
        "re",
        "e"
      ],
      [
        "re",
        "as"
      ],
      [
        "re",
        "co"
      ],
      [
        "re",
        "vi"
      ],
      [
        "re",
        "ct"
      ],
      [
        "re",
        "sc"
      ],
      [
        "re",
        "ali"
      ],
      [
        "re",
        "call"
      ],
      [
        "re",
        "solut"
      ],
      [
        "at",
        "ter"
      ],
      [
        "the",
        "s"
      ],
      [
        "the",
        "me"
      ],
      [
        "to",
        "ld"
      ],
      [
        "to",
        "pp"
      ],
      [
        "to",
        "ry"
      ],
      [
        "to",
        "tal"
      ],
      [
        "you",
        "ng"
      ],
      [
        "ve",
        "get"
      ],
      [
        "ve",
        "red"
      ],
      [
        "ve",
        "lop"
      ],
      [
        "it",
        "ed"
      ],
      [
        "it",
        "ali"
      ],
      [
        "it",
        "ist"
      ],
      [
        "on",
        "ic"
      ],
      [
        "on",
        "der"
      ],
      [
        "on",
        "ment"
      ],
      [
        "or",
        "ing"
      ],
      [
        "or",
        "ian"
      ],
      [
        "or",
        "ange"
      ],
      [
        "me",
        "at"
      ],
      [
        "me",
        "llow"
      ],
      [
        "st",
        "er"
      ],
      [
        "al",
        "ong"
      ],
      [
        "al",
        "ive"
      ],
      [
        "al",
        "igned"
      ],
      [
        "al",
        "orian"
      ],
      [
        "ha",
        "sh"
      ],
      [
        "ha",
        "mas"
      ],
      [
        "en",
        "vir"
      ],
      [
        "is",
        "m"
      ],
      [
        "is",
        "ine"
      ],
      [
        "is",
        "land"
      ],
      [
        "is",
        "hed"
      ],
      [
        "is",
        "odes"
      ],
      [
        "er",
        "man"
      ],
      [
        "er",
        "stand"
      ],
      [
        "ar",
        "n"
      ],
      [
        "oo",
        "oo"
      ],
      [
        "oo",
        "mer"
      ],
      [
        "oo",
        "ked"
      ],
      [
        "ch",
        "in"
      ],
      [
        "ch",
        "er"
      ],
      [
        "ch",
        "ed"
      ],
      [
        "ch",
        "ea"
      ],
      [
        "ch",
        "ur"
      ],
      [
        "ch",
        "ild"
      ],
      [
        "be",
        "come"
      ],
      [
        "be",
        "gin"
      ],
      [
        "ay",
        "aking"
      ],
      [
        "li",
        "c"
      ],
      [
        "li",
        "zation"
      ],
      [
        "li",
        "kes"
      ],
      [
        "se",
        "ver"
      ],
      [
        "se",
        "ts"
      ],
      [
        "se",
        "wing"
      ],
      [
        "ke",
        "to"
      ],
      [
        "ke",
        "ling"
      ],
      [
        "so",
        "ci"
      ],
      [
        "as",
        "h"
      ],
      [
        "as",
        "y"
      ],
      [
        "le",
        "y"
      ],
      [
        "le",
        "go"
      ],
      [
        "le",
        "ct"
      ],
      [
        "le",
        "ave"
      ],
      [
        "le",
        "vel"
      ],
      [
        "he",
        "art"
      ],
      [
        "ic",
        "o"
      ],
      [
        "ic",
        "es"
      ],
      [
        "ic",
        "ation"
      ],
      [
        "ll",
        "ar"
      ],
      [
        "do",
        "c"
      ],
      [
        "do",
        "g"
      ],
      [
        "do",
        "cum"
      ],
      [
        "for",
        "mer"
      ],
      [
        "for",
        "nia"
      ],
      [
        "we",
        "d"
      ],
      [
        "we",
        "ar"
      ],
      [
        "ver",
        "se"
      ],
      [
        "out",
        "doors"
      ],
      [
        "ac",
        "up"
      ],
      [
        "ac",
        "ter"
      ],
      [
        "ac",
        "cur"
      ],
      [
        "ac",
        "counting"
      ],
      [
        "ac",
        "cid"
      ],
      [
        "ut",
        "z"
      ],
      [
        "are",
        "ly"
      ],
      [
        "ab",
        "ad"
      ],
      [
        "ab",
        "il"
      ],
      [
        "ab",
        "les"
      ],
      [
        "ab",
        "sol"
      ],
      [
        "et",
        "y"
      ],
      [
        "un",
        "like"
      ],
      [
        "un",
        "ct"
      ],
      [
        "un",
        "fort"
      ],
      [
        "un",
        "ately"
      ],
      [
        "wi",
        "ch"
      ],
      [
        "pl",
        "es"
      ],
      [
        "pl",
        "us"
      ],
      [
        "pl",
        "ain"
      ],
      [
        "ri",
        "de"
      ],
      [
        "ri",
        "ors"
      ],
      [
        "ad",
        "a"
      ],
      [
        "ad",
        "s"
      ],
      [
        "ad",
        "mit"
      ],
      [
        "ad",
        "ition"
      ],
      [
        "id",
        "es"
      ],
      [
        "id",
        "erman"
      ],
      [
        "ti",
        "p"
      ],
      [
        "ti",
        "es"
      ],
      [
        "ti",
        "ps"
      ],
      [
        "ro",
        "le"
      ],
      [
        "ro",
        "ck"
      ],
      [
        "co",
        "p"
      ],
      [
        "co",
        "ach"
      ],
      [
        "mo",
        "ved"
      ],
      [
        "am",
        "ate"
      ],
      [
        "am",
        "bit"
      ],
      [
        "ho",
        "e"
      ],
      [
        "ho",
        "bb"
      ],
      [
        "fe",
        "ll"
      ],
      [
        "up",
        "s"
      ],
      [
        "what",
        "s"
      ],
      [
        "some",
        "how"
      ],
      [
        "some",
        "where"
      ],
      [
        "wor",
        "th"
      ],
      [
        "wor",
        "ked"
      ],
      [
        "wor",
        "ries"
      ],
      [
        "end",
        "ent"
      ],
      [
        "but",
        "ter"
      ],
      [
        "lo",
        "st"
      ],
      [
        "tr",
        "an"
      ],
      [
        "tr",
        "ust"
      ],
      [
        "tr",
        "arian"
      ],
      [
        "tr",
        "adition"
      ],
      [
        "pe",
        "er"
      ],
      [
        "pe",
        "anut"
      ],
      [
        "ne",
        "l"
      ],
      [
        "ne",
        "ither"
      ],
      [
        "ne",
        "igh"
      ],
      [
        "ne",
        "gative"
      ],
      [
        "all",
        "ow"
      ],
      [
        "ce",
        "mber"
      ],
      [
        "ce",
        "pt"
      ],
      [
        "pre",
        "par"
      ],
      [
        "pre",
        "tend"
      ],
      [
        "pre",
        "ference"
      ],
      [
        "work",
        "s"
      ],
      [
        "work",
        "out"
      ],
      [
        "te",
        "xt"
      ],
      [
        "ter",
        "ms"
      ],
      [
        "ast",
        "ic"
      ],
      [
        "Do",
        "ing"
      ],
      [
        "de",
        "st"
      ],
      [
        "de",
        "le"
      ],
      [
        "de",
        "gre"
      ],
      [
        "de",
        "ep"
      ],
      [
        "de",
        "cent"
      ],
      [
        "de",
        "press"
      ],
      [
        "de",
        "als"
      ],
      [
        "de",
        "velop"
      ],
      [
        "get",
        "s"
      ],
      [
        "lot",
        "us"
      ],
      [
        "us",
        "es"
      ],
      [
        "us",
        "ual"
      ],
      [
        "ex",
        "c"
      ],
      [
        "ex",
        "tend"
      ],
      [
        "ex",
        "pens"
      ],
      [
        "ple",
        "asure"
      ],
      [
        "haha",
        "ha"
      ],
      [
        "ake",
        "y"
      ],
      [
        "plan",
        "et"
      ],
      [
        "el",
        "s"
      ],
      [
        "el",
        "itist"
      ],
      [
        "sp",
        "or"
      ],
      [
        "sp",
        "end"
      ],
      [
        "sp",
        "ring"
      ],
      [
        "av",
        "ail"
      ],
      [
        "qu",
        "ick"
      ],
      [
        "qu",
        "ire"
      ],
      [
        "com",
        "ic"
      ],
      [
        "com",
        "mun"
      ],
      [
        "ear",
        "th"
      ],
      [
        "ear",
        "ned"
      ],
      [
        "week",
        "ends"
      ],
      [
        "You",
        "rself"
      ],
      [
        "jo",
        "ke"
      ],
      [
        "jo",
        "hn"
      ],
      [
        "sh",
        "ort"
      ],
      [
        "ci",
        "vi"
      ],
      [
        "ci",
        "gar"
      ],
      [
        "vi",
        "l"
      ],
      [
        "vi",
        "ous"
      ],
      [
        "love",
        "d"
      ],
      [
        "con",
        "f"
      ],
      [
        "con",
        "trarian"
      ],
      [
        "im",
        "pro"
      ],
      [
        "im",
        "person"
      ],
      [
        "im",
        "mig"
      ],
      [
        "pro",
        "cess"
      ],
      [
        "Th",
        "en"
      ],
      [
        "Th",
        "ough"
      ],
      [
        "po",
        "et"
      ],
      [
        "po",
        "sed"
      ],
      [
        "fo",
        "rest"
      ],
      [
        "gr",
        "ow"
      ],
      [
        "gr",
        "ap"
      ],
      [
        "gr",
        "oomer"
      ],
      [
        "cou",
        "ntry"
      ],
      [
        "gi",
        "ant"
      ],
      [
        "gi",
        "ves"
      ],
      [
        "il",
        "ar"
      ],
      [
        "ca",
        "ge"
      ],
      [
        "ca",
        "uses"
      ],
      [
        "gu",
        "ing"
      ],
      [
        "ep",
        "y"
      ],
      [
        "ep",
        "isodes"
      ],
      [
        "tri",
        "ath"
      ],
      [
        "We",
        "re"
      ],
      [
        "got",
        "ten"
      ],
      [
        "fin",
        "ished"
      ],
      [
        "pr",
        "ote"
      ],
      [
        "bet",
        "s"
      ],
      [
        "ack",
        "ing"
      ],
      [
        "sc",
        "am"
      ],
      [
        "sc",
        "ifi"
      ],
      [
        "ap",
        "ple"
      ],
      [
        "ap",
        "art"
      ],
      [
        "ten",
        "sive"
      ],
      [
        "har",
        "sh"
      ],
      [
        "Haha",
        "h"
      ],
      [
        "every",
        "day"
      ],
      [
        "tre",
        "al"
      ],
      [
        "tre",
        "es"
      ],
      [
        "der",
        "n"
      ],
      [
        "der",
        "abad"
      ],
      [
        "oh",
        "h"
      ],
      [
        "part",
        "s"
      ],
      [
        "ag",
        "ing"
      ],
      [
        "ag",
        "es"
      ],
      [
        "ag",
        "ed"
      ],
      [
        "bo",
        "x"
      ],
      [
        "ang",
        "ing"
      ],
      [
        "ang",
        "ers"
      ],
      [
        "own",
        "s"
      ],
      [
        "ach",
        "e"
      ],
      [
        "di",
        "ed"
      ],
      [
        "di",
        "et"
      ],
      [
        "eat",
        "en"
      ],
      [
        "fer",
        "ment"
      ],
      [
        "ment",
        "s"
      ],
      [
        "start",
        "ing"
      ],
      [
        "home",
        "made"
      ],
      [
        "person",
        "ally"
      ],
      [
        "cre",
        "ature"
      ],
      [
        "cre",
        "ated"
      ],
      [
        "cre",
        "dit"
      ],
      [
        "mb",
        "le"
      ],
      [
        "rain",
        "y"
      ],
      [
        "rain",
        "forest"
      ],
      [
        "su",
        "ck"
      ],
      [
        "su",
        "bst"
      ],
      [
        "sup",
        "posed"
      ],
      [
        "visit",
        "ing"
      ],
      [
        "bu",
        "cket"
      ],
      [
        "hh",
        "hh"
      ],
      [
        "cho",
        "ice"
      ],
      [
        "cho",
        "log"
      ],
      [
        "bot",
        "tom"
      ],
      [
        "cook",
        "ie"
      ],
      [
        "put",
        "s"
      ],
      [
        "dif",
        "fic"
      ],
      [
        "run",
        "ning"
      ],
      [
        "ali",
        "en"
      ],
      [
        "fl",
        "ood"
      ],
      [
        "fl",
        "akey"
      ],
      [
        "mas",
        "hed"
      ],
      [
        "str",
        "a"
      ],
      [
        "str",
        "um"
      ],
      [
        "str",
        "angers"
      ],
      [
        "cr",
        "af"
      ],
      [
        "mean",
        "ingful"
      ],
      [
        "come",
        "dy"
      ],
      [
        "res",
        "er"
      ],
      [
        "res",
        "ult"
      ],
      [
        "men",
        "u"
      ],
      [
        "men",
        "tion"
      ],
      [
        "lear",
        "ned"
      ],
      [
        "man",
        "aged"
      ],
      [
        "ra",
        "ther"
      ],
      [
        "hope",
        "fully"
      ],
      [
        "super",
        "man"
      ],
      [
        "big",
        "gest"
      ],
      [
        "dr",
        "ought"
      ],
      [
        "pic",
        "ked"
      ],
      [
        "thought",
        "s"
      ],
      [
        "mer",
        "ci"
      ],
      [
        "seas",
        "ons"
      ],
      [
        "ute",
        "ly"
      ],
      [
        "tion",
        "ary"
      ],
      [
        "experi",
        "en"
      ],
      [
        "br",
        "ought"
      ],
      [
        "br",
        "owns"
      ],
      [
        "catch",
        "ing"
      ],
      [
        "name",
        "s"
      ],
      [
        "name",
        "nt"
      ],
      [
        "sto",
        "ry"
      ],
      [
        "tea",
        "cher"
      ],
      [
        "wr",
        "ote"
      ],
      [
        "ward",
        "s"
      ],
      [
        "stay",
        "ing"
      ],
      [
        "off",
        "site"
      ],
      [
        "robot",
        "s"
      ],
      [
        "friend",
        "ly"
      ],
      [
        "??",
        "?"
      ],
      [
        "Any",
        "thing"
      ],
      [
        "Any",
        "ways"
      ],
      [
        "cor",
        "n"
      ],
      [
        "cor",
        "rect"
      ],
      [
        "cle",
        "an"
      ],
      [
        "cle",
        "ver"
      ],
      [
        "rac",
        "ing"
      ],
      [
        "water",
        "mel"
      ],
      [
        "yo",
        "da"
      ],
      [
        "dep",
        "ending"
      ],
      [
        "health",
        "ier"
      ],
      [
        "To",
        "m"
      ],
      [
        "To",
        "day"
      ],
      [
        "Wh",
        "ite"
      ],
      [
        "par",
        "k"
      ],
      [
        "col",
        "or"
      ],
      [
        "question",
        "s"
      ],
      [
        "origin",
        "s"
      ],
      [
        "Al",
        "though"
      ],
      [
        "ba",
        "hamas"
      ],
      [
        "cat",
        "s"
      ],
      [
        "clo",
        "thes"
      ],
      [
        "dd",
        "en"
      ],
      [
        "dd",
        "le"
      ],
      [
        "des",
        "k"
      ],
      [
        "fre",
        "nch"
      ],
      [
        "fig",
        "uring"
      ],
      [
        "land",
        "s"
      ],
      [
        "mus",
        "cle"
      ],
      [
        "sort",
        "s"
      ],
      [
        "set",
        "ting"
      ],
      [
        "pop",
        "corn"
      ],
      [
        "cour",
        "t"
      ],
      [
        "break",
        "fast"
      ],
      [
        "au",
        "to"
      ],
      [
        "au",
        "di"
      ],
      [
        "gl",
        "ish"
      ],
      [
        "night",
        "s"
      ],
      [
        "past",
        "ry"
      ],
      [
        "past",
        "ries"
      ],
      [
        "tast",
        "y"
      ],
      [
        "ket",
        "ball"
      ],
      [
        "mentor",
        "ship"
      ],
      [
        "volunte",
        "ers"
      ],
      [
        "Be",
        "st"
      ],
      [
        "Can",
        "ada"
      ],
      [
        "Go",
        "d"
      ],
      [
        "Japan",
        "ese"
      ],
      [
        "ber",
        "ry"
      ],
      [
        "bar",
        "s"
      ],
      [
        "car",
        "rot"
      ],
      [
        "cro",
        "ss"
      ],
      [
        "eas",
        "ier"
      ],
      [
        "gen",
        "re"
      ],
      [
        "min",
        "at"
      ],
      [
        "min",
        "ute"
      ],
      [
        "mat",
        "ters"
      ],
      [
        "op",
        "tions"
      ],
      [
        "sou",
        "ps"
      ],
      [
        "sing",
        "le"
      ],
      [
        "sun",
        "ny"
      ],
      [
        "beach",
        "es"
      ],
      [
        "head",
        "ache"
      ],
      [
        "etc",
        "eter"
      ],
      [
        "sport",
        "s"
      ],
      [
        "join",
        "ed"
      ],
      [
        "imag",
        "ine"
      ],
      [
        "Some",
        "thing"
      ],
      [
        "colle",
        "cted"
      ],
      [
        "figure",
        "d"
      ],
      [
        "De",
        "ja"
      ],
      [
        "De",
        "cember"
      ],
      [
        "Ex",
        "actly"
      ],
      [
        "Fr",
        "ance"
      ],
      [
        "Mo",
        "dern"
      ],
      [
        "app",
        "arently"
      ],
      [
        "bor",
        "ing"
      ],
      [
        "kid",
        "s"
      ],
      [
        "net",
        "s"
      ],
      [
        "pot",
        "tery"
      ],
      [
        "pain",
        "ting"
      ],
      [
        "ser",
        "ies"
      ],
      [
        "sid",
        "es"
      ],
      [
        "adv",
        "ice"
      ],
      [
        "convers",
        "ations"
      ],
      [
        "sug",
        "ar"
      ],
      [
        "crab",
        "s"
      ],
      [
        "Every",
        "thing"
      ],
      [
        "Re",
        "ally"
      ],
      [
        "Vi",
        "ew"
      ],
      [
        "bas",
        "ically"
      ],
      [
        "bas",
        "ketball"
      ],
      [
        "cur",
        "rently"
      ],
      [
        "cute",
        "st"
      ],
      [
        "hun",
        "ting"
      ],
      [
        "hun",
        "gry"
      ],
      [
        "hone",
        "stly"
      ],
      [
        "kk",
        "kk"
      ],
      [
        "luck",
        "y"
      ],
      [
        "nn",
        "nn"
      ],
      [
        "pap",
        "er"
      ],
      [
        "pap",
        "ers"
      ],
      [
        "tal",
        "ks"
      ],
      [
        "twi",
        "sts"
      ],
      [
        "val",
        "ue"
      ],
      [
        "attend",
        "ing"
      ],
      [
        "light",
        "s"
      ],
      [
        "acti",
        "vit"
      ],
      [
        "acti",
        "vity"
      ],
      [
        "actor",
        "ing"
      ],
      [
        "advent",
        "ure"
      ],
      [
        "advent",
        "ures"
      ],
      [
        "dec",
        "id"
      ],
      [
        "expl",
        "ain"
      ],
      [
        "expl",
        "oring"
      ],
      [
        "exce",
        "pt"
      ],
      [
        "comput",
        "er"
      ],
      [
        "personal",
        "ity"
      ],
      [
        "survi",
        "ve"
      ],
      [
        "surpr",
        "ising"
      ],
      [
        "photo",
        "grap"
      ],
      [
        "organi",
        "zation"
      ],
      [
        "Game",
        "s"
      ],
      [
        "Per",
        "haps"
      ],
      [
        "Par",
        "lor"
      ],
      [
        "bur",
        "den"
      ],
      [
        "cha",
        "in"
      ],
      [
        "ef",
        "its"
      ],
      [
        "fact",
        "s"
      ],
      [
        "hum",
        "id"
      ],
      [
        "hit",
        "ting"
      ],
      [
        "rand",
        "om"
      ],
      [
        "va",
        "ulting"
      ],
      [
        "ref",
        "actoring"
      ],
      [
        "chord",
        "s"
      ],
      [
        "lif",
        "ting"
      ],
      [
        "list",
        "en"
      ],
      [
        "lead",
        "ers"
      ],
      [
        "decor",
        "ate"
      ],
      [
        "restaur",
        "ant"
      ],
      [
        "restaur",
        "ants"
      ],
      [
        "norm",
        "al"
      ],
      [
        "norm",
        "ally"
      ],
      [
        "Pokemon",
        "s"
      ],
      [
        "consider",
        "ing"
      ],
      [
        "Aven",
        "gers"
      ],
      [
        "By",
        "e"
      ],
      [
        "Get",
        "ting"
      ],
      [
        "King",
        "yo"
      ],
      [
        "Lot",
        "s"
      ],
      [
        "Mor",
        "ning"
      ],
      [
        "Sp",
        "iderman"
      ],
      [
        "Ste",
        "ph"
      ],
      [
        "War",
        "riors"
      ],
      [
        "Yo",
        "ga"
      ],
      [
        "char",
        "acter"
      ],
      [
        "cult",
        "ure"
      ],
      [
        "eg",
        "gs"
      ],
      [
        "fly",
        "ing"
      ],
      [
        "fant",
        "asy"
      ],
      [
        "lar",
        "ge"
      ],
      [
        "mil",
        "es"
      ],
      [
        "nes",
        "days"
      ],
      [
        "nas",
        "ium"
      ],
      [
        "pha",
        "se"
      ],
      [
        "si",
        "zed"
      ],
      [
        "she",
        "ll"
      ],
      [
        "swi",
        "m"
      ],
      [
        "squ",
        "ash"
      ],
      [
        "sim",
        "ilar"
      ],
      [
        "tw",
        "ice"
      ],
      [
        "tac",
        "o"
      ],
      [
        "tour",
        "nament"
      ],
      [
        "var",
        "i"
      ],
      [
        "zipl",
        "ine"
      ],
      [
        "arti",
        "ficial"
      ],
      [
        "chan",
        "nel"
      ],
      [
        "form",
        "ation"
      ],
      [
        "logi",
        "stics"
      ],
      [
        "present",
        "ation"
      ],
      [
        "typic",
        "ally"
      ],
      [
        "terri",
        "ble"
      ],
      [
        "spea",
        "k"
      ],
      [
        "complete",
        "ly"
      ],
      [
        "conne",
        "ct"
      ],
      [
        "certain",
        "ly"
      ],
      [
        "gradu",
        "ated"
      ],
      [
        "emp",
        "athis"
      ],
      [
        "suggestion",
        "s"
      ],
      [
        "philoso",
        "phy"
      ],
      [
        "techn",
        "ical"
      ],
      [
        "specif",
        "ic"
      ],
      [
        "challeng",
        "ing"
      ],
      [
        "profess",
        "ion"
      ],
      [
        "Olym",
        "pic"
      ],
      [
        "Amer",
        "ica"
      ],
      [
        "Bus",
        "y"
      ],
      [
        "Cor",
        "gi"
      ],
      [
        "Cho",
        "colate"
      ],
      [
        "Cali",
        "fornia"
      ],
      [
        "Cru",
        "z"
      ],
      [
        "Fre",
        "nch"
      ],
      [
        "Fir",
        "st"
      ],
      [
        "Hy",
        "derabad"
      ],
      [
        "Hok",
        "kai"
      ],
      [
        "Ke",
        "to"
      ],
      [
        "Kar",
        "ao"
      ],
      [
        "Lok",
        "i"
      ],
      [
        "Mand",
        "alorian"
      ],
      [
        "Mex",
        "ico"
      ],
      [
        "Net",
        "flix"
      ],
      [
        "Plan",
        "ning"
      ],
      [
        "Sh",
        "ould"
      ],
      [
        "Sw",
        "itch"
      ],
      [
        "Spart",
        "an"
      ],
      [
        "Ta",
        "hoe"
      ],
      [
        "Tre",
        "asure"
      ],
      [
        "Ter",
        "minat"
      ],
      [
        "Tai",
        "wan"
      ],
      [
        "Und",
        "erstand"
      ],
      [
        "VER",
        "Y"
      ],
      [
        "Wan",
        "na"
      ],
      [
        "ben",
        "efits"
      ],
      [
        "bil",
        "lions"
      ],
      [
        "cin",
        "ating"
      ],
      [
        "cany",
        "on"
      ],
      [
        "fas",
        "cinating"
      ],
      [
        "fet",
        "ched"
      ],
      [
        "fix",
        "ed"
      ],
      [
        "jit",
        "su"
      ],
      [
        "jour",
        "ney"
      ],
      [
        "kl",
        "utz"
      ],
      [
        "law",
        "yer"
      ],
      [
        "mir",
        "acles"
      ],
      [
        "natur",
        "al"
      ],
      [
        "oce",
        "an"
      ],
      [
        "pul",
        "led"
      ],
      [
        "raf",
        "ting"
      ],
      [
        "rush",
        "ing"
      ],
      [
        "sand",
        "wich"
      ],
      [
        "slo",
        "pe"
      ],
      [
        "sus",
        "hi"
      ],
      [
        "snor",
        "keling"
      ],
      [
        "smoo",
        "th"
      ],
      [
        "tit",
        "le"
      ],
      [
        "touch",
        "ing"
      ],
      [
        "voil",
        "a"
      ],
      [
        "thum",
        "bs"
      ],
      [
        "inde",
        "ed"
      ],
      [
        "indep",
        "endent"
      ],
      [
        "reco",
        "vered"
      ],
      [
        "reali",
        "ze"
      ],
      [
        "topp",
        "ings"
      ],
      [
        "envir",
        "onment"
      ],
      [
        "chur",
        "ch"
      ],
      [
        "sever",
        "al"
      ],
      [
        "lego",
        "s"
      ],
      [
        "docum",
        "ent"
      ],
      [
        "outdoors",
        "y"
      ],
      [
        "acup",
        "unct"
      ],
      [
        "accur",
        "ate"
      ],
      [
        "abil",
        "ity"
      ],
      [
        "absol",
        "utely"
      ],
      [
        "unfort",
        "unately"
      ],
      [
        "amate",
        "ur"
      ],
      [
        "ambit",
        "ious"
      ],
      [
        "hobb",
        "ies"
      ],
      [
        "neigh",
        "boring"
      ],
      [
        "negative",
        "s"
      ],
      [
        "degre",
        "es"
      ],
      [
        "depress",
        "ing"
      ],
      [
        "extend",
        "ed"
      ],
      [
        "expens",
        "ive"
      ],
      [
        "avail",
        "able"
      ],
      [
        "civi",
        "lization"
      ],
      [
        "impro",
        "ve"
      ],
      [
        "imperson",
        "ate"
      ],
      [
        "immig",
        "rants"
      ],
      [
        "subst",
        "itute"
      ],
      [
        "cholog",
        "ical"
      ],
      [
        "diffic",
        "ult"
      ],
      [
        "mention",
        "ed"
      ],
      [
        "watermel",
        "on"
      ],
      [
        "etceter",
        "a"
      ],
      [
        "activit",
        "ies"
      ],
      [
        "photograp",
        "hy"
      ],
      [
        "empathis",
        "e"
      ],
      [
        "Hokkai",
        "do"
      ],
      [
        "Karao",
        "ke"
      ],
      [
        "Understand",
        "ing"
      ]
    ]
  }
}